{
  "version": "1.0",
  "truncation": null,
  "padding": null,
  "added_tokens": [
    {
      "id": 0,
      "content": "<pad>",
      "single_word": false,
      "lstrip": false,
      "rstrip": false,
      "normalized": false,
      "special": true
    },
    {
      "id": 1,
      "content": "<unk>",
      "single_word": false,
      "lstrip": false,
      "rstrip": false,
      "normalized": false,
      "special": true
    },
    {
      "id": 2,
      "content": "<s>",
      "single_word": false,
      "lstrip": false,
      "rstrip": false,
      "normalized": false,
      "special": true
    },
    {
      "id": 3,
      "content": "</s>",
      "single_word": false,
      "lstrip": false,
      "rstrip": false,
      "normalized": false,
      "special": true
    },
    {
      "id": 4,
      "content": "<|im_start|>",
      "single_word": false,
      "lstrip": false,
      "rstrip": false,
      "normalized": false,
      "special": true
    },
    {
      "id": 5,
      "content": "<|im_end|>",
      "single_word": false,
      "lstrip": false,
      "rstrip": false,
      "normalized": false,
      "special": true
    },
    {
      "id": 6,
      "content": "<|system|>",
      "single_word": false,
      "lstrip": false,
      "rstrip": false,
      "normalized": false,
      "special": true
    },
    {
      "id": 7,
      "content": "<|user|>",
      "single_word": false,
      "lstrip": false,
      "rstrip": false,
      "normalized": false,
      "special": true
    },
    {
      "id": 8,
      "content": "<|assistant|>",
      "single_word": false,
      "lstrip": false,
      "rstrip": false,
      "normalized": false,
      "special": true
    },
    {
      "id": 9,
      "content": "<|tool|>",
      "single_word": false,
      "lstrip": false,
      "rstrip": false,
      "normalized": false,
      "special": true
    },
    {
      "id": 10,
      "content": "<|tool_result|>",
      "single_word": false,
      "lstrip": false,
      "rstrip": false,
      "normalized": false,
      "special": true
    },
    {
      "id": 11,
      "content": "<|task_sentiment|>",
      "single_word": false,
      "lstrip": false,
      "rstrip": false,
      "normalized": false,
      "special": true
    },
    {
      "id": 12,
      "content": "<|task_ner|>",
      "single_word": false,
      "lstrip": false,
      "rstrip": false,
      "normalized": false,
      "special": true
    },
    {
      "id": 13,
      "content": "<|task_qa|>",
      "single_word": false,
      "lstrip": false,
      "rstrip": false,
      "normalized": false,
      "special": true
    },
    {
      "id": 14,
      "content": "<|task_summarize|>",
      "single_word": false,
      "lstrip": false,
      "rstrip": false,
      "normalized": false,
      "special": true
    },
    {
      "id": 15,
      "content": "<|task_translate_bn_en|>",
      "single_word": false,
      "lstrip": false,
      "rstrip": false,
      "normalized": false,
      "special": true
    },
    {
      "id": 16,
      "content": "<|task_translate_en_bn|>",
      "single_word": false,
      "lstrip": false,
      "rstrip": false,
      "normalized": false,
      "special": true
    },
    {
      "id": 17,
      "content": "<|task_classify|>",
      "single_word": false,
      "lstrip": false,
      "rstrip": false,
      "normalized": false,
      "special": true
    },
    {
      "id": 18,
      "content": "<|task_generate|>",
      "single_word": false,
      "lstrip": false,
      "rstrip": false,
      "normalized": false,
      "special": true
    },
    {
      "id": 19,
      "content": "<|task_toxicity|>",
      "single_word": false,
      "lstrip": false,
      "rstrip": false,
      "normalized": false,
      "special": true
    },
    {
      "id": 20,
      "content": "<|task_nli|>",
      "single_word": false,
      "lstrip": false,
      "rstrip": false,
      "normalized": false,
      "special": true
    },
    {
      "id": 21,
      "content": "<|task_pos|>",
      "single_word": false,
      "lstrip": false,
      "rstrip": false,
      "normalized": false,
      "special": true
    },
    {
      "id": 22,
      "content": "<|task_paraphrase|>",
      "single_word": false,
      "lstrip": false,
      "rstrip": false,
      "normalized": false,
      "special": true
    },
    {
      "id": 23,
      "content": "<|lang_bn|>",
      "single_word": false,
      "lstrip": false,
      "rstrip": false,
      "normalized": false,
      "special": true
    },
    {
      "id": 24,
      "content": "<|lang_en|>",
      "single_word": false,
      "lstrip": false,
      "rstrip": false,
      "normalized": false,
      "special": true
    },
    {
      "id": 25,
      "content": "<|lang_wbn|>",
      "single_word": false,
      "lstrip": false,
      "rstrip": false,
      "normalized": false,
      "special": true
    },
    {
      "id": 26,
      "content": "<|lang_bnls|>",
      "single_word": false,
      "lstrip": false,
      "rstrip": false,
      "normalized": false,
      "special": true
    },
    {
      "id": 27,
      "content": "<|lang_mix|>",
      "single_word": false,
      "lstrip": false,
      "rstrip": false,
      "normalized": false,
      "special": true
    },
    {
      "id": 28,
      "content": "<|lang_code|>",
      "single_word": false,
      "lstrip": false,
      "rstrip": false,
      "normalized": false,
      "special": true
    },
    {
      "id": 29,
      "content": "<|positive|>",
      "single_word": false,
      "lstrip": false,
      "rstrip": false,
      "normalized": false,
      "special": true
    },
    {
      "id": 30,
      "content": "<|negative|>",
      "single_word": false,
      "lstrip": false,
      "rstrip": false,
      "normalized": false,
      "special": true
    },
    {
      "id": 31,
      "content": "<|neutral|>",
      "single_word": false,
      "lstrip": false,
      "rstrip": false,
      "normalized": false,
      "special": true
    },
    {
      "id": 32,
      "content": "<|mixed|>",
      "single_word": false,
      "lstrip": false,
      "rstrip": false,
      "normalized": false,
      "special": true
    },
    {
      "id": 33,
      "content": "<|offensive|>",
      "single_word": false,
      "lstrip": false,
      "rstrip": false,
      "normalized": false,
      "special": true
    },
    {
      "id": 34,
      "content": "<|think|>",
      "single_word": false,
      "lstrip": false,
      "rstrip": false,
      "normalized": false,
      "special": true
    },
    {
      "id": 35,
      "content": "<|/think|>",
      "single_word": false,
      "lstrip": false,
      "rstrip": false,
      "normalized": false,
      "special": true
    },
    {
      "id": 36,
      "content": "<|answer|>",
      "single_word": false,
      "lstrip": false,
      "rstrip": false,
      "normalized": false,
      "special": true
    },
    {
      "id": 37,
      "content": "<|sep|>",
      "single_word": false,
      "lstrip": false,
      "rstrip": false,
      "normalized": false,
      "special": true
    },
    {
      "id": 38,
      "content": "<|context|>",
      "single_word": false,
      "lstrip": false,
      "rstrip": false,
      "normalized": false,
      "special": true
    },
    {
      "id": 39,
      "content": "<|/context|>",
      "single_word": false,
      "lstrip": false,
      "rstrip": false,
      "normalized": false,
      "special": true
    },
    {
      "id": 40,
      "content": "<|question|>",
      "single_word": false,
      "lstrip": false,
      "rstrip": false,
      "normalized": false,
      "special": true
    },
    {
      "id": 41,
      "content": "<|passage|>",
      "single_word": false,
      "lstrip": false,
      "rstrip": false,
      "normalized": false,
      "special": true
    },
    {
      "id": 42,
      "content": "<|headline|>",
      "single_word": false,
      "lstrip": false,
      "rstrip": false,
      "normalized": false,
      "special": true
    },
    {
      "id": 43,
      "content": "<|title|>",
      "single_word": false,
      "lstrip": false,
      "rstrip": false,
      "normalized": false,
      "special": true
    },
    {
      "id": 44,
      "content": "<|speaker_a|>",
      "single_word": false,
      "lstrip": false,
      "rstrip": false,
      "normalized": false,
      "special": true
    },
    {
      "id": 45,
      "content": "<|speaker_b|>",
      "single_word": false,
      "lstrip": false,
      "rstrip": false,
      "normalized": false,
      "special": true
    },
    {
      "id": 46,
      "content": "<|reserved_0|>",
      "single_word": false,
      "lstrip": false,
      "rstrip": false,
      "normalized": false,
      "special": true
    },
    {
      "id": 47,
      "content": "<|reserved_1|>",
      "single_word": false,
      "lstrip": false,
      "rstrip": false,
      "normalized": false,
      "special": true
    },
    {
      "id": 48,
      "content": "<|reserved_2|>",
      "single_word": false,
      "lstrip": false,
      "rstrip": false,
      "normalized": false,
      "special": true
    },
    {
      "id": 49,
      "content": "<|reserved_3|>",
      "single_word": false,
      "lstrip": false,
      "rstrip": false,
      "normalized": false,
      "special": true
    },
    {
      "id": 50,
      "content": "<|reserved_4|>",
      "single_word": false,
      "lstrip": false,
      "rstrip": false,
      "normalized": false,
      "special": true
    },
    {
      "id": 51,
      "content": "<|reserved_5|>",
      "single_word": false,
      "lstrip": false,
      "rstrip": false,
      "normalized": false,
      "special": true
    },
    {
      "id": 52,
      "content": "<|reserved_6|>",
      "single_word": false,
      "lstrip": false,
      "rstrip": false,
      "normalized": false,
      "special": true
    },
    {
      "id": 53,
      "content": "<|reserved_7|>",
      "single_word": false,
      "lstrip": false,
      "rstrip": false,
      "normalized": false,
      "special": true
    },
    {
      "id": 54,
      "content": "<|reserved_8|>",
      "single_word": false,
      "lstrip": false,
      "rstrip": false,
      "normalized": false,
      "special": true
    },
    {
      "id": 55,
      "content": "<|reserved_9|>",
      "single_word": false,
      "lstrip": false,
      "rstrip": false,
      "normalized": false,
      "special": true
    },
    {
      "id": 56,
      "content": "<|reserved_10|>",
      "single_word": false,
      "lstrip": false,
      "rstrip": false,
      "normalized": false,
      "special": true
    },
    {
      "id": 57,
      "content": "<|reserved_11|>",
      "single_word": false,
      "lstrip": false,
      "rstrip": false,
      "normalized": false,
      "special": true
    },
    {
      "id": 58,
      "content": "<|reserved_12|>",
      "single_word": false,
      "lstrip": false,
      "rstrip": false,
      "normalized": false,
      "special": true
    },
    {
      "id": 59,
      "content": "<|reserved_13|>",
      "single_word": false,
      "lstrip": false,
      "rstrip": false,
      "normalized": false,
      "special": true
    },
    {
      "id": 60,
      "content": "<|reserved_14|>",
      "single_word": false,
      "lstrip": false,
      "rstrip": false,
      "normalized": false,
      "special": true
    },
    {
      "id": 61,
      "content": "<|reserved_15|>",
      "single_word": false,
      "lstrip": false,
      "rstrip": false,
      "normalized": false,
      "special": true
    },
    {
      "id": 62,
      "content": "<|reserved_16|>",
      "single_word": false,
      "lstrip": false,
      "rstrip": false,
      "normalized": false,
      "special": true
    },
    {
      "id": 63,
      "content": "<|reserved_17|>",
      "single_word": false,
      "lstrip": false,
      "rstrip": false,
      "normalized": false,
      "special": true
    },
    {
      "id": 64,
      "content": "<|reserved_18|>",
      "single_word": false,
      "lstrip": false,
      "rstrip": false,
      "normalized": false,
      "special": true
    },
    {
      "id": 65,
      "content": "<|reserved_19|>",
      "single_word": false,
      "lstrip": false,
      "rstrip": false,
      "normalized": false,
      "special": true
    },
    {
      "id": 66,
      "content": "<|reserved_20|>",
      "single_word": false,
      "lstrip": false,
      "rstrip": false,
      "normalized": false,
      "special": true
    },
    {
      "id": 67,
      "content": "<|reserved_21|>",
      "single_word": false,
      "lstrip": false,
      "rstrip": false,
      "normalized": false,
      "special": true
    },
    {
      "id": 68,
      "content": "<|reserved_22|>",
      "single_word": false,
      "lstrip": false,
      "rstrip": false,
      "normalized": false,
      "special": true
    },
    {
      "id": 69,
      "content": "<|reserved_23|>",
      "single_word": false,
      "lstrip": false,
      "rstrip": false,
      "normalized": false,
      "special": true
    },
    {
      "id": 70,
      "content": "<|reserved_24|>",
      "single_word": false,
      "lstrip": false,
      "rstrip": false,
      "normalized": false,
      "special": true
    },
    {
      "id": 71,
      "content": "<|reserved_25|>",
      "single_word": false,
      "lstrip": false,
      "rstrip": false,
      "normalized": false,
      "special": true
    },
    {
      "id": 72,
      "content": "<|reserved_26|>",
      "single_word": false,
      "lstrip": false,
      "rstrip": false,
      "normalized": false,
      "special": true
    },
    {
      "id": 73,
      "content": "<|reserved_27|>",
      "single_word": false,
      "lstrip": false,
      "rstrip": false,
      "normalized": false,
      "special": true
    },
    {
      "id": 74,
      "content": "<|reserved_28|>",
      "single_word": false,
      "lstrip": false,
      "rstrip": false,
      "normalized": false,
      "special": true
    },
    {
      "id": 75,
      "content": "<|reserved_29|>",
      "single_word": false,
      "lstrip": false,
      "rstrip": false,
      "normalized": false,
      "special": true
    },
    {
      "id": 76,
      "content": "<|reserved_30|>",
      "single_word": false,
      "lstrip": false,
      "rstrip": false,
      "normalized": false,
      "special": true
    },
    {
      "id": 77,
      "content": "<|reserved_31|>",
      "single_word": false,
      "lstrip": false,
      "rstrip": false,
      "normalized": false,
      "special": true
    },
    {
      "id": 78,
      "content": "<|reserved_32|>",
      "single_word": false,
      "lstrip": false,
      "rstrip": false,
      "normalized": false,
      "special": true
    },
    {
      "id": 79,
      "content": "<|reserved_33|>",
      "single_word": false,
      "lstrip": false,
      "rstrip": false,
      "normalized": false,
      "special": true
    },
    {
      "id": 80,
      "content": "<|reserved_34|>",
      "single_word": false,
      "lstrip": false,
      "rstrip": false,
      "normalized": false,
      "special": true
    },
    {
      "id": 81,
      "content": "<|reserved_35|>",
      "single_word": false,
      "lstrip": false,
      "rstrip": false,
      "normalized": false,
      "special": true
    },
    {
      "id": 82,
      "content": "<|reserved_36|>",
      "single_word": false,
      "lstrip": false,
      "rstrip": false,
      "normalized": false,
      "special": true
    },
    {
      "id": 83,
      "content": "<|reserved_37|>",
      "single_word": false,
      "lstrip": false,
      "rstrip": false,
      "normalized": false,
      "special": true
    },
    {
      "id": 84,
      "content": "<|reserved_38|>",
      "single_word": false,
      "lstrip": false,
      "rstrip": false,
      "normalized": false,
      "special": true
    },
    {
      "id": 85,
      "content": "<|reserved_39|>",
      "single_word": false,
      "lstrip": false,
      "rstrip": false,
      "normalized": false,
      "special": true
    },
    {
      "id": 86,
      "content": "<|reserved_40|>",
      "single_word": false,
      "lstrip": false,
      "rstrip": false,
      "normalized": false,
      "special": true
    },
    {
      "id": 87,
      "content": "<|reserved_41|>",
      "single_word": false,
      "lstrip": false,
      "rstrip": false,
      "normalized": false,
      "special": true
    },
    {
      "id": 88,
      "content": "<|reserved_42|>",
      "single_word": false,
      "lstrip": false,
      "rstrip": false,
      "normalized": false,
      "special": true
    },
    {
      "id": 89,
      "content": "<|reserved_43|>",
      "single_word": false,
      "lstrip": false,
      "rstrip": false,
      "normalized": false,
      "special": true
    },
    {
      "id": 90,
      "content": "<|reserved_44|>",
      "single_word": false,
      "lstrip": false,
      "rstrip": false,
      "normalized": false,
      "special": true
    },
    {
      "id": 91,
      "content": "<|reserved_45|>",
      "single_word": false,
      "lstrip": false,
      "rstrip": false,
      "normalized": false,
      "special": true
    },
    {
      "id": 92,
      "content": "<|reserved_46|>",
      "single_word": false,
      "lstrip": false,
      "rstrip": false,
      "normalized": false,
      "special": true
    },
    {
      "id": 93,
      "content": "<|reserved_47|>",
      "single_word": false,
      "lstrip": false,
      "rstrip": false,
      "normalized": false,
      "special": true
    },
    {
      "id": 94,
      "content": "<|reserved_48|>",
      "single_word": false,
      "lstrip": false,
      "rstrip": false,
      "normalized": false,
      "special": true
    },
    {
      "id": 95,
      "content": "<|reserved_49|>",
      "single_word": false,
      "lstrip": false,
      "rstrip": false,
      "normalized": false,
      "special": true
    },
    {
      "id": 96,
      "content": "<|reserved_50|>",
      "single_word": false,
      "lstrip": false,
      "rstrip": false,
      "normalized": false,
      "special": true
    },
    {
      "id": 97,
      "content": "<|reserved_51|>",
      "single_word": false,
      "lstrip": false,
      "rstrip": false,
      "normalized": false,
      "special": true
    },
    {
      "id": 98,
      "content": "<|reserved_52|>",
      "single_word": false,
      "lstrip": false,
      "rstrip": false,
      "normalized": false,
      "special": true
    },
    {
      "id": 99,
      "content": "<|reserved_53|>",
      "single_word": false,
      "lstrip": false,
      "rstrip": false,
      "normalized": false,
      "special": true
    },
    {
      "id": 100,
      "content": "<|reserved_54|>",
      "single_word": false,
      "lstrip": false,
      "rstrip": false,
      "normalized": false,
      "special": true
    },
    {
      "id": 101,
      "content": "<|reserved_55|>",
      "single_word": false,
      "lstrip": false,
      "rstrip": false,
      "normalized": false,
      "special": true
    },
    {
      "id": 102,
      "content": "<|reserved_56|>",
      "single_word": false,
      "lstrip": false,
      "rstrip": false,
      "normalized": false,
      "special": true
    },
    {
      "id": 103,
      "content": "<|reserved_57|>",
      "single_word": false,
      "lstrip": false,
      "rstrip": false,
      "normalized": false,
      "special": true
    },
    {
      "id": 104,
      "content": "<|reserved_58|>",
      "single_word": false,
      "lstrip": false,
      "rstrip": false,
      "normalized": false,
      "special": true
    },
    {
      "id": 105,
      "content": "<|reserved_59|>",
      "single_word": false,
      "lstrip": false,
      "rstrip": false,
      "normalized": false,
      "special": true
    },
    {
      "id": 106,
      "content": "<|reserved_60|>",
      "single_word": false,
      "lstrip": false,
      "rstrip": false,
      "normalized": false,
      "special": true
    },
    {
      "id": 107,
      "content": "<|reserved_61|>",
      "single_word": false,
      "lstrip": false,
      "rstrip": false,
      "normalized": false,
      "special": true
    },
    {
      "id": 108,
      "content": "<|reserved_62|>",
      "single_word": false,
      "lstrip": false,
      "rstrip": false,
      "normalized": false,
      "special": true
    },
    {
      "id": 109,
      "content": "<|reserved_63|>",
      "single_word": false,
      "lstrip": false,
      "rstrip": false,
      "normalized": false,
      "special": true
    },
    {
      "id": 110,
      "content": "<|reserved_64|>",
      "single_word": false,
      "lstrip": false,
      "rstrip": false,
      "normalized": false,
      "special": true
    },
    {
      "id": 111,
      "content": "<|reserved_65|>",
      "single_word": false,
      "lstrip": false,
      "rstrip": false,
      "normalized": false,
      "special": true
    },
    {
      "id": 112,
      "content": "<|reserved_66|>",
      "single_word": false,
      "lstrip": false,
      "rstrip": false,
      "normalized": false,
      "special": true
    },
    {
      "id": 113,
      "content": "<|reserved_67|>",
      "single_word": false,
      "lstrip": false,
      "rstrip": false,
      "normalized": false,
      "special": true
    },
    {
      "id": 114,
      "content": "<|reserved_68|>",
      "single_word": false,
      "lstrip": false,
      "rstrip": false,
      "normalized": false,
      "special": true
    },
    {
      "id": 115,
      "content": "<|reserved_69|>",
      "single_word": false,
      "lstrip": false,
      "rstrip": false,
      "normalized": false,
      "special": true
    },
    {
      "id": 116,
      "content": "<|reserved_70|>",
      "single_word": false,
      "lstrip": false,
      "rstrip": false,
      "normalized": false,
      "special": true
    },
    {
      "id": 117,
      "content": "<|reserved_71|>",
      "single_word": false,
      "lstrip": false,
      "rstrip": false,
      "normalized": false,
      "special": true
    },
    {
      "id": 118,
      "content": "<|reserved_72|>",
      "single_word": false,
      "lstrip": false,
      "rstrip": false,
      "normalized": false,
      "special": true
    },
    {
      "id": 119,
      "content": "<|reserved_73|>",
      "single_word": false,
      "lstrip": false,
      "rstrip": false,
      "normalized": false,
      "special": true
    },
    {
      "id": 120,
      "content": "<|reserved_74|>",
      "single_word": false,
      "lstrip": false,
      "rstrip": false,
      "normalized": false,
      "special": true
    },
    {
      "id": 121,
      "content": "<|reserved_75|>",
      "single_word": false,
      "lstrip": false,
      "rstrip": false,
      "normalized": false,
      "special": true
    },
    {
      "id": 122,
      "content": "<|reserved_76|>",
      "single_word": false,
      "lstrip": false,
      "rstrip": false,
      "normalized": false,
      "special": true
    },
    {
      "id": 123,
      "content": "<|reserved_77|>",
      "single_word": false,
      "lstrip": false,
      "rstrip": false,
      "normalized": false,
      "special": true
    },
    {
      "id": 124,
      "content": "<|reserved_78|>",
      "single_word": false,
      "lstrip": false,
      "rstrip": false,
      "normalized": false,
      "special": true
    },
    {
      "id": 125,
      "content": "<|reserved_79|>",
      "single_word": false,
      "lstrip": false,
      "rstrip": false,
      "normalized": false,
      "special": true
    },
    {
      "id": 126,
      "content": "<|reserved_80|>",
      "single_word": false,
      "lstrip": false,
      "rstrip": false,
      "normalized": false,
      "special": true
    },
    {
      "id": 127,
      "content": "<|reserved_81|>",
      "single_word": false,
      "lstrip": false,
      "rstrip": false,
      "normalized": false,
      "special": true
    },
    {
      "id": 128,
      "content": "<|reserved_82|>",
      "single_word": false,
      "lstrip": false,
      "rstrip": false,
      "normalized": false,
      "special": true
    },
    {
      "id": 129,
      "content": "<|reserved_83|>",
      "single_word": false,
      "lstrip": false,
      "rstrip": false,
      "normalized": false,
      "special": true
    },
    {
      "id": 130,
      "content": "<|reserved_84|>",
      "single_word": false,
      "lstrip": false,
      "rstrip": false,
      "normalized": false,
      "special": true
    },
    {
      "id": 131,
      "content": "<|reserved_85|>",
      "single_word": false,
      "lstrip": false,
      "rstrip": false,
      "normalized": false,
      "special": true
    },
    {
      "id": 132,
      "content": "<|reserved_86|>",
      "single_word": false,
      "lstrip": false,
      "rstrip": false,
      "normalized": false,
      "special": true
    },
    {
      "id": 133,
      "content": "<|reserved_87|>",
      "single_word": false,
      "lstrip": false,
      "rstrip": false,
      "normalized": false,
      "special": true
    },
    {
      "id": 134,
      "content": "<|reserved_88|>",
      "single_word": false,
      "lstrip": false,
      "rstrip": false,
      "normalized": false,
      "special": true
    },
    {
      "id": 135,
      "content": "<|reserved_89|>",
      "single_word": false,
      "lstrip": false,
      "rstrip": false,
      "normalized": false,
      "special": true
    },
    {
      "id": 136,
      "content": "<|reserved_90|>",
      "single_word": false,
      "lstrip": false,
      "rstrip": false,
      "normalized": false,
      "special": true
    },
    {
      "id": 137,
      "content": "<|reserved_91|>",
      "single_word": false,
      "lstrip": false,
      "rstrip": false,
      "normalized": false,
      "special": true
    },
    {
      "id": 138,
      "content": "<|reserved_92|>",
      "single_word": false,
      "lstrip": false,
      "rstrip": false,
      "normalized": false,
      "special": true
    },
    {
      "id": 139,
      "content": "<|reserved_93|>",
      "single_word": false,
      "lstrip": false,
      "rstrip": false,
      "normalized": false,
      "special": true
    },
    {
      "id": 140,
      "content": "<|reserved_94|>",
      "single_word": false,
      "lstrip": false,
      "rstrip": false,
      "normalized": false,
      "special": true
    },
    {
      "id": 141,
      "content": "<|reserved_95|>",
      "single_word": false,
      "lstrip": false,
      "rstrip": false,
      "normalized": false,
      "special": true
    },
    {
      "id": 142,
      "content": "<|reserved_96|>",
      "single_word": false,
      "lstrip": false,
      "rstrip": false,
      "normalized": false,
      "special": true
    },
    {
      "id": 143,
      "content": "<|reserved_97|>",
      "single_word": false,
      "lstrip": false,
      "rstrip": false,
      "normalized": false,
      "special": true
    },
    {
      "id": 144,
      "content": "<|reserved_98|>",
      "single_word": false,
      "lstrip": false,
      "rstrip": false,
      "normalized": false,
      "special": true
    },
    {
      "id": 145,
      "content": "<|reserved_99|>",
      "single_word": false,
      "lstrip": false,
      "rstrip": false,
      "normalized": false,
      "special": true
    }
  ],
  "normalizer": null,
  "pre_tokenizer": {
    "type": "Metaspace",
    "replacement": "▁",
    "prepend_scheme": "first",
    "split": false
  },
  "post_processor": {
    "type": "TemplateProcessing",
    "single": [
      {
        "Sequence": {
          "id": "A",
          "type_id": 0
        }
      }
    ],
    "pair": [
      {
        "Sequence": {
          "id": "A",
          "type_id": 0
        }
      },
      {
        "Sequence": {
          "id": "B",
          "type_id": 1
        }
      }
    ],
    "special_tokens": {}
  },
  "decoder": {
    "type": "Metaspace",
    "replacement": "▁",
    "prepend_scheme": "first",
    "split": true
  },
  "model": {
    "type": "Unigram",
    "unk_id": 1,
    "vocab": [
      [
        "<pad>",
        0.0
      ],
      [
        "<unk>",
        0.0
      ],
      [
        "<s>",
        0.0
      ],
      [
        "</s>",
        0.0
      ],
      [
        "<|im_start|>",
        0.0
      ],
      [
        "<|im_end|>",
        0.0
      ],
      [
        "<|system|>",
        0.0
      ],
      [
        "<|user|>",
        0.0
      ],
      [
        "<|assistant|>",
        0.0
      ],
      [
        "<|tool|>",
        0.0
      ],
      [
        "<|tool_result|>",
        0.0
      ],
      [
        "<|task_sentiment|>",
        0.0
      ],
      [
        "<|task_ner|>",
        0.0
      ],
      [
        "<|task_qa|>",
        0.0
      ],
      [
        "<|task_summarize|>",
        0.0
      ],
      [
        "<|task_translate_bn_en|>",
        0.0
      ],
      [
        "<|task_translate_en_bn|>",
        0.0
      ],
      [
        "<|task_classify|>",
        0.0
      ],
      [
        "<|task_generate|>",
        0.0
      ],
      [
        "<|task_toxicity|>",
        0.0
      ],
      [
        "<|task_nli|>",
        0.0
      ],
      [
        "<|task_pos|>",
        0.0
      ],
      [
        "<|task_paraphrase|>",
        0.0
      ],
      [
        "<|lang_bn|>",
        0.0
      ],
      [
        "<|lang_en|>",
        0.0
      ],
      [
        "<|lang_wbn|>",
        0.0
      ],
      [
        "<|lang_bnls|>",
        0.0
      ],
      [
        "<|lang_mix|>",
        0.0
      ],
      [
        "<|lang_code|>",
        0.0
      ],
      [
        "<|positive|>",
        0.0
      ],
      [
        "<|negative|>",
        0.0
      ],
      [
        "<|neutral|>",
        0.0
      ],
      [
        "<|mixed|>",
        0.0
      ],
      [
        "<|offensive|>",
        0.0
      ],
      [
        "<|think|>",
        0.0
      ],
      [
        "<|/think|>",
        0.0
      ],
      [
        "<|answer|>",
        0.0
      ],
      [
        "<|sep|>",
        0.0
      ],
      [
        "<|context|>",
        0.0
      ],
      [
        "<|/context|>",
        0.0
      ],
      [
        "<|question|>",
        0.0
      ],
      [
        "<|passage|>",
        0.0
      ],
      [
        "<|headline|>",
        0.0
      ],
      [
        "<|title|>",
        0.0
      ],
      [
        "<|speaker_a|>",
        0.0
      ],
      [
        "<|speaker_b|>",
        0.0
      ],
      [
        "<|reserved_0|>",
        0.0
      ],
      [
        "<|reserved_1|>",
        0.0
      ],
      [
        "<|reserved_2|>",
        0.0
      ],
      [
        "<|reserved_3|>",
        0.0
      ],
      [
        "<|reserved_4|>",
        0.0
      ],
      [
        "<|reserved_5|>",
        0.0
      ],
      [
        "<|reserved_6|>",
        0.0
      ],
      [
        "<|reserved_7|>",
        0.0
      ],
      [
        "<|reserved_8|>",
        0.0
      ],
      [
        "<|reserved_9|>",
        0.0
      ],
      [
        "<|reserved_10|>",
        0.0
      ],
      [
        "<|reserved_11|>",
        0.0
      ],
      [
        "<|reserved_12|>",
        0.0
      ],
      [
        "<|reserved_13|>",
        0.0
      ],
      [
        "<|reserved_14|>",
        0.0
      ],
      [
        "<|reserved_15|>",
        0.0
      ],
      [
        "<|reserved_16|>",
        0.0
      ],
      [
        "<|reserved_17|>",
        0.0
      ],
      [
        "<|reserved_18|>",
        0.0
      ],
      [
        "<|reserved_19|>",
        0.0
      ],
      [
        "<|reserved_20|>",
        0.0
      ],
      [
        "<|reserved_21|>",
        0.0
      ],
      [
        "<|reserved_22|>",
        0.0
      ],
      [
        "<|reserved_23|>",
        0.0
      ],
      [
        "<|reserved_24|>",
        0.0
      ],
      [
        "<|reserved_25|>",
        0.0
      ],
      [
        "<|reserved_26|>",
        0.0
      ],
      [
        "<|reserved_27|>",
        0.0
      ],
      [
        "<|reserved_28|>",
        0.0
      ],
      [
        "<|reserved_29|>",
        0.0
      ],
      [
        "<|reserved_30|>",
        0.0
      ],
      [
        "<|reserved_31|>",
        0.0
      ],
      [
        "<|reserved_32|>",
        0.0
      ],
      [
        "<|reserved_33|>",
        0.0
      ],
      [
        "<|reserved_34|>",
        0.0
      ],
      [
        "<|reserved_35|>",
        0.0
      ],
      [
        "<|reserved_36|>",
        0.0
      ],
      [
        "<|reserved_37|>",
        0.0
      ],
      [
        "<|reserved_38|>",
        0.0
      ],
      [
        "<|reserved_39|>",
        0.0
      ],
      [
        "<|reserved_40|>",
        0.0
      ],
      [
        "<|reserved_41|>",
        0.0
      ],
      [
        "<|reserved_42|>",
        0.0
      ],
      [
        "<|reserved_43|>",
        0.0
      ],
      [
        "<|reserved_44|>",
        0.0
      ],
      [
        "<|reserved_45|>",
        0.0
      ],
      [
        "<|reserved_46|>",
        0.0
      ],
      [
        "<|reserved_47|>",
        0.0
      ],
      [
        "<|reserved_48|>",
        0.0
      ],
      [
        "<|reserved_49|>",
        0.0
      ],
      [
        "<|reserved_50|>",
        0.0
      ],
      [
        "<|reserved_51|>",
        0.0
      ],
      [
        "<|reserved_52|>",
        0.0
      ],
      [
        "<|reserved_53|>",
        0.0
      ],
      [
        "<|reserved_54|>",
        0.0
      ],
      [
        "<|reserved_55|>",
        0.0
      ],
      [
        "<|reserved_56|>",
        0.0
      ],
      [
        "<|reserved_57|>",
        0.0
      ],
      [
        "<|reserved_58|>",
        0.0
      ],
      [
        "<|reserved_59|>",
        0.0
      ],
      [
        "<|reserved_60|>",
        0.0
      ],
      [
        "<|reserved_61|>",
        0.0
      ],
      [
        "<|reserved_62|>",
        0.0
      ],
      [
        "<|reserved_63|>",
        0.0
      ],
      [
        "<|reserved_64|>",
        0.0
      ],
      [
        "<|reserved_65|>",
        0.0
      ],
      [
        "<|reserved_66|>",
        0.0
      ],
      [
        "<|reserved_67|>",
        0.0
      ],
      [
        "<|reserved_68|>",
        0.0
      ],
      [
        "<|reserved_69|>",
        0.0
      ],
      [
        "<|reserved_70|>",
        0.0
      ],
      [
        "<|reserved_71|>",
        0.0
      ],
      [
        "<|reserved_72|>",
        0.0
      ],
      [
        "<|reserved_73|>",
        0.0
      ],
      [
        "<|reserved_74|>",
        0.0
      ],
      [
        "<|reserved_75|>",
        0.0
      ],
      [
        "<|reserved_76|>",
        0.0
      ],
      [
        "<|reserved_77|>",
        0.0
      ],
      [
        "<|reserved_78|>",
        0.0
      ],
      [
        "<|reserved_79|>",
        0.0
      ],
      [
        "<|reserved_80|>",
        0.0
      ],
      [
        "<|reserved_81|>",
        0.0
      ],
      [
        "<|reserved_82|>",
        0.0
      ],
      [
        "<|reserved_83|>",
        0.0
      ],
      [
        "<|reserved_84|>",
        0.0
      ],
      [
        "<|reserved_85|>",
        0.0
      ],
      [
        "<|reserved_86|>",
        0.0
      ],
      [
        "<|reserved_87|>",
        0.0
      ],
      [
        "<|reserved_88|>",
        0.0
      ],
      [
        "<|reserved_89|>",
        0.0
      ],
      [
        "<|reserved_90|>",
        0.0
      ],
      [
        "<|reserved_91|>",
        0.0
      ],
      [
        "<|reserved_92|>",
        0.0
      ],
      [
        "<|reserved_93|>",
        0.0
      ],
      [
        "<|reserved_94|>",
        0.0
      ],
      [
        "<|reserved_95|>",
        0.0
      ],
      [
        "<|reserved_96|>",
        0.0
      ],
      [
        "<|reserved_97|>",
        0.0
      ],
      [
        "<|reserved_98|>",
        0.0
      ],
      [
        "<|reserved_99|>",
        0.0
      ],
      [
        "<0x00>",
        0.0
      ],
      [
        "<0x01>",
        0.0
      ],
      [
        "<0x02>",
        0.0
      ],
      [
        "<0x03>",
        0.0
      ],
      [
        "<0x04>",
        0.0
      ],
      [
        "<0x05>",
        0.0
      ],
      [
        "<0x06>",
        0.0
      ],
      [
        "<0x07>",
        0.0
      ],
      [
        "<0x08>",
        0.0
      ],
      [
        "<0x09>",
        0.0
      ],
      [
        "<0x0A>",
        0.0
      ],
      [
        "<0x0B>",
        0.0
      ],
      [
        "<0x0C>",
        0.0
      ],
      [
        "<0x0D>",
        0.0
      ],
      [
        "<0x0E>",
        0.0
      ],
      [
        "<0x0F>",
        0.0
      ],
      [
        "<0x10>",
        0.0
      ],
      [
        "<0x11>",
        0.0
      ],
      [
        "<0x12>",
        0.0
      ],
      [
        "<0x13>",
        0.0
      ],
      [
        "<0x14>",
        0.0
      ],
      [
        "<0x15>",
        0.0
      ],
      [
        "<0x16>",
        0.0
      ],
      [
        "<0x17>",
        0.0
      ],
      [
        "<0x18>",
        0.0
      ],
      [
        "<0x19>",
        0.0
      ],
      [
        "<0x1A>",
        0.0
      ],
      [
        "<0x1B>",
        0.0
      ],
      [
        "<0x1C>",
        0.0
      ],
      [
        "<0x1D>",
        0.0
      ],
      [
        "<0x1E>",
        0.0
      ],
      [
        "<0x1F>",
        0.0
      ],
      [
        "<0x20>",
        0.0
      ],
      [
        "<0x21>",
        0.0
      ],
      [
        "<0x22>",
        0.0
      ],
      [
        "<0x23>",
        0.0
      ],
      [
        "<0x24>",
        0.0
      ],
      [
        "<0x25>",
        0.0
      ],
      [
        "<0x26>",
        0.0
      ],
      [
        "<0x27>",
        0.0
      ],
      [
        "<0x28>",
        0.0
      ],
      [
        "<0x29>",
        0.0
      ],
      [
        "<0x2A>",
        0.0
      ],
      [
        "<0x2B>",
        0.0
      ],
      [
        "<0x2C>",
        0.0
      ],
      [
        "<0x2D>",
        0.0
      ],
      [
        "<0x2E>",
        0.0
      ],
      [
        "<0x2F>",
        0.0
      ],
      [
        "<0x30>",
        0.0
      ],
      [
        "<0x31>",
        0.0
      ],
      [
        "<0x32>",
        0.0
      ],
      [
        "<0x33>",
        0.0
      ],
      [
        "<0x34>",
        0.0
      ],
      [
        "<0x35>",
        0.0
      ],
      [
        "<0x36>",
        0.0
      ],
      [
        "<0x37>",
        0.0
      ],
      [
        "<0x38>",
        0.0
      ],
      [
        "<0x39>",
        0.0
      ],
      [
        "<0x3A>",
        0.0
      ],
      [
        "<0x3B>",
        0.0
      ],
      [
        "<0x3C>",
        0.0
      ],
      [
        "<0x3D>",
        0.0
      ],
      [
        "<0x3E>",
        0.0
      ],
      [
        "<0x3F>",
        0.0
      ],
      [
        "<0x40>",
        0.0
      ],
      [
        "<0x41>",
        0.0
      ],
      [
        "<0x42>",
        0.0
      ],
      [
        "<0x43>",
        0.0
      ],
      [
        "<0x44>",
        0.0
      ],
      [
        "<0x45>",
        0.0
      ],
      [
        "<0x46>",
        0.0
      ],
      [
        "<0x47>",
        0.0
      ],
      [
        "<0x48>",
        0.0
      ],
      [
        "<0x49>",
        0.0
      ],
      [
        "<0x4A>",
        0.0
      ],
      [
        "<0x4B>",
        0.0
      ],
      [
        "<0x4C>",
        0.0
      ],
      [
        "<0x4D>",
        0.0
      ],
      [
        "<0x4E>",
        0.0
      ],
      [
        "<0x4F>",
        0.0
      ],
      [
        "<0x50>",
        0.0
      ],
      [
        "<0x51>",
        0.0
      ],
      [
        "<0x52>",
        0.0
      ],
      [
        "<0x53>",
        0.0
      ],
      [
        "<0x54>",
        0.0
      ],
      [
        "<0x55>",
        0.0
      ],
      [
        "<0x56>",
        0.0
      ],
      [
        "<0x57>",
        0.0
      ],
      [
        "<0x58>",
        0.0
      ],
      [
        "<0x59>",
        0.0
      ],
      [
        "<0x5A>",
        0.0
      ],
      [
        "<0x5B>",
        0.0
      ],
      [
        "<0x5C>",
        0.0
      ],
      [
        "<0x5D>",
        0.0
      ],
      [
        "<0x5E>",
        0.0
      ],
      [
        "<0x5F>",
        0.0
      ],
      [
        "<0x60>",
        0.0
      ],
      [
        "<0x61>",
        0.0
      ],
      [
        "<0x62>",
        0.0
      ],
      [
        "<0x63>",
        0.0
      ],
      [
        "<0x64>",
        0.0
      ],
      [
        "<0x65>",
        0.0
      ],
      [
        "<0x66>",
        0.0
      ],
      [
        "<0x67>",
        0.0
      ],
      [
        "<0x68>",
        0.0
      ],
      [
        "<0x69>",
        0.0
      ],
      [
        "<0x6A>",
        0.0
      ],
      [
        "<0x6B>",
        0.0
      ],
      [
        "<0x6C>",
        0.0
      ],
      [
        "<0x6D>",
        0.0
      ],
      [
        "<0x6E>",
        0.0
      ],
      [
        "<0x6F>",
        0.0
      ],
      [
        "<0x70>",
        0.0
      ],
      [
        "<0x71>",
        0.0
      ],
      [
        "<0x72>",
        0.0
      ],
      [
        "<0x73>",
        0.0
      ],
      [
        "<0x74>",
        0.0
      ],
      [
        "<0x75>",
        0.0
      ],
      [
        "<0x76>",
        0.0
      ],
      [
        "<0x77>",
        0.0
      ],
      [
        "<0x78>",
        0.0
      ],
      [
        "<0x79>",
        0.0
      ],
      [
        "<0x7A>",
        0.0
      ],
      [
        "<0x7B>",
        0.0
      ],
      [
        "<0x7C>",
        0.0
      ],
      [
        "<0x7D>",
        0.0
      ],
      [
        "<0x7E>",
        0.0
      ],
      [
        "<0x7F>",
        0.0
      ],
      [
        "<0x80>",
        0.0
      ],
      [
        "<0x81>",
        0.0
      ],
      [
        "<0x82>",
        0.0
      ],
      [
        "<0x83>",
        0.0
      ],
      [
        "<0x84>",
        0.0
      ],
      [
        "<0x85>",
        0.0
      ],
      [
        "<0x86>",
        0.0
      ],
      [
        "<0x87>",
        0.0
      ],
      [
        "<0x88>",
        0.0
      ],
      [
        "<0x89>",
        0.0
      ],
      [
        "<0x8A>",
        0.0
      ],
      [
        "<0x8B>",
        0.0
      ],
      [
        "<0x8C>",
        0.0
      ],
      [
        "<0x8D>",
        0.0
      ],
      [
        "<0x8E>",
        0.0
      ],
      [
        "<0x8F>",
        0.0
      ],
      [
        "<0x90>",
        0.0
      ],
      [
        "<0x91>",
        0.0
      ],
      [
        "<0x92>",
        0.0
      ],
      [
        "<0x93>",
        0.0
      ],
      [
        "<0x94>",
        0.0
      ],
      [
        "<0x95>",
        0.0
      ],
      [
        "<0x96>",
        0.0
      ],
      [
        "<0x97>",
        0.0
      ],
      [
        "<0x98>",
        0.0
      ],
      [
        "<0x99>",
        0.0
      ],
      [
        "<0x9A>",
        0.0
      ],
      [
        "<0x9B>",
        0.0
      ],
      [
        "<0x9C>",
        0.0
      ],
      [
        "<0x9D>",
        0.0
      ],
      [
        "<0x9E>",
        0.0
      ],
      [
        "<0x9F>",
        0.0
      ],
      [
        "<0xA0>",
        0.0
      ],
      [
        "<0xA1>",
        0.0
      ],
      [
        "<0xA2>",
        0.0
      ],
      [
        "<0xA3>",
        0.0
      ],
      [
        "<0xA4>",
        0.0
      ],
      [
        "<0xA5>",
        0.0
      ],
      [
        "<0xA6>",
        0.0
      ],
      [
        "<0xA7>",
        0.0
      ],
      [
        "<0xA8>",
        0.0
      ],
      [
        "<0xA9>",
        0.0
      ],
      [
        "<0xAA>",
        0.0
      ],
      [
        "<0xAB>",
        0.0
      ],
      [
        "<0xAC>",
        0.0
      ],
      [
        "<0xAD>",
        0.0
      ],
      [
        "<0xAE>",
        0.0
      ],
      [
        "<0xAF>",
        0.0
      ],
      [
        "<0xB0>",
        0.0
      ],
      [
        "<0xB1>",
        0.0
      ],
      [
        "<0xB2>",
        0.0
      ],
      [
        "<0xB3>",
        0.0
      ],
      [
        "<0xB4>",
        0.0
      ],
      [
        "<0xB5>",
        0.0
      ],
      [
        "<0xB6>",
        0.0
      ],
      [
        "<0xB7>",
        0.0
      ],
      [
        "<0xB8>",
        0.0
      ],
      [
        "<0xB9>",
        0.0
      ],
      [
        "<0xBA>",
        0.0
      ],
      [
        "<0xBB>",
        0.0
      ],
      [
        "<0xBC>",
        0.0
      ],
      [
        "<0xBD>",
        0.0
      ],
      [
        "<0xBE>",
        0.0
      ],
      [
        "<0xBF>",
        0.0
      ],
      [
        "<0xC0>",
        0.0
      ],
      [
        "<0xC1>",
        0.0
      ],
      [
        "<0xC2>",
        0.0
      ],
      [
        "<0xC3>",
        0.0
      ],
      [
        "<0xC4>",
        0.0
      ],
      [
        "<0xC5>",
        0.0
      ],
      [
        "<0xC6>",
        0.0
      ],
      [
        "<0xC7>",
        0.0
      ],
      [
        "<0xC8>",
        0.0
      ],
      [
        "<0xC9>",
        0.0
      ],
      [
        "<0xCA>",
        0.0
      ],
      [
        "<0xCB>",
        0.0
      ],
      [
        "<0xCC>",
        0.0
      ],
      [
        "<0xCD>",
        0.0
      ],
      [
        "<0xCE>",
        0.0
      ],
      [
        "<0xCF>",
        0.0
      ],
      [
        "<0xD0>",
        0.0
      ],
      [
        "<0xD1>",
        0.0
      ],
      [
        "<0xD2>",
        0.0
      ],
      [
        "<0xD3>",
        0.0
      ],
      [
        "<0xD4>",
        0.0
      ],
      [
        "<0xD5>",
        0.0
      ],
      [
        "<0xD6>",
        0.0
      ],
      [
        "<0xD7>",
        0.0
      ],
      [
        "<0xD8>",
        0.0
      ],
      [
        "<0xD9>",
        0.0
      ],
      [
        "<0xDA>",
        0.0
      ],
      [
        "<0xDB>",
        0.0
      ],
      [
        "<0xDC>",
        0.0
      ],
      [
        "<0xDD>",
        0.0
      ],
      [
        "<0xDE>",
        0.0
      ],
      [
        "<0xDF>",
        0.0
      ],
      [
        "<0xE0>",
        0.0
      ],
      [
        "<0xE1>",
        0.0
      ],
      [
        "<0xE2>",
        0.0
      ],
      [
        "<0xE3>",
        0.0
      ],
      [
        "<0xE4>",
        0.0
      ],
      [
        "<0xE5>",
        0.0
      ],
      [
        "<0xE6>",
        0.0
      ],
      [
        "<0xE7>",
        0.0
      ],
      [
        "<0xE8>",
        0.0
      ],
      [
        "<0xE9>",
        0.0
      ],
      [
        "<0xEA>",
        0.0
      ],
      [
        "<0xEB>",
        0.0
      ],
      [
        "<0xEC>",
        0.0
      ],
      [
        "<0xED>",
        0.0
      ],
      [
        "<0xEE>",
        0.0
      ],
      [
        "<0xEF>",
        0.0
      ],
      [
        "<0xF0>",
        0.0
      ],
      [
        "<0xF1>",
        0.0
      ],
      [
        "<0xF2>",
        0.0
      ],
      [
        "<0xF3>",
        0.0
      ],
      [
        "<0xF4>",
        0.0
      ],
      [
        "<0xF5>",
        0.0
      ],
      [
        "<0xF6>",
        0.0
      ],
      [
        "<0xF7>",
        0.0
      ],
      [
        "<0xF8>",
        0.0
      ],
      [
        "<0xF9>",
        0.0
      ],
      [
        "<0xFA>",
        0.0
      ],
      [
        "<0xFB>",
        0.0
      ],
      [
        "<0xFC>",
        0.0
      ],
      [
        "<0xFD>",
        0.0
      ],
      [
        "<0xFE>",
        0.0
      ],
      [
        "<0xFF>",
        0.0
      ],
      [
        "।",
        -3.1232588291168213
      ],
      [
        ",",
        -3.56021499633789
      ],
      [
        "▁",
        -4.646478652954102
      ],
      [
        ".",
        -4.802199363708496
      ],
      [
        "-",
        -4.909852027893066
      ],
      [
        "ের",
        -4.939685821533203
      ],
      [
        "▁ও",
        -5.028324604034424
      ],
      [
        "▁the",
        -5.110700607299805
      ],
      [
        "▁করে",
        -5.127408504486084
      ],
      [
        "র",
        -5.131335258483887
      ],
      [
        "▁এবং",
        -5.3719024658203125
      ],
      [
        "▁না",
        -5.4568328857421875
      ],
      [
        "▁থেকে",
        -5.482706546783447
      ],
      [
        "ে",
        -5.493752956390381
      ],
      [
        "▁(",
        -5.503425121307373
      ],
      [
        "▁এই",
        -5.512122631072998
      ],
      [
        "s",
        -5.518994331359863
      ],
      [
        ")",
        -5.554039478302002
      ],
      [
        "▁হয়",
        -5.572410583496094
      ],
      [
        "▁of",
        -5.575364112854004
      ],
      [
        "▁করা",
        -5.6128458976745605
      ],
      [
        "▁and",
        -5.702365875244141
      ],
      [
        "কে",
        -5.708880424499512
      ],
      [
        "▁এ",
        -5.767160892486572
      ],
      [
        "’",
        -5.811176300048828
      ],
      [
        "▁to",
        -5.811275482177734
      ],
      [
        "▁জন্য",
        -5.870205879211426
      ],
      [
        "▁তিনি",
        -5.911066055297852
      ],
      [
        "▁তার",
        -5.946520805358887
      ],
      [
        "▁একটি",
        -5.961518287658691
      ],
      [
        "ও",
        -5.978246212005615
      ],
      [
        "ই",
        -5.978489398956299
      ],
      [
        "▁a",
        -6.0047454833984375
      ],
      [
        "▁হবে",
        -6.009154796600342
      ],
      [
        "▁হয়েছে",
        -6.0326714515686035
      ],
      [
        "▁করতে",
        -6.043761730194092
      ],
      [
        "▁in",
        -6.097905158996582
      ],
      [
        ":",
        -6.109197616577148
      ],
      [
        "▁এর",
        -6.1678900718688965
      ],
      [
        "▁নিয়ে",
        -6.222535133361816
      ],
      [
        "▁করেন",
        -6.225464344024658
      ],
      [
        "▁আর",
        -6.271179676055908
      ],
      [
        "▁যে",
        -6.280516147613525
      ],
      [
        "▁এক",
        -6.280655384063721
      ],
      [
        "▁হয়ে",
        -6.35744047164917
      ],
      [
        "▁‘",
        -6.361457824707031
      ],
      [
        "▁বা",
        -6.409889221191406
      ],
      [
        "▁বলেন",
        -6.4209980964660645
      ],
      [
        "▁মধ্যে",
        -6.463123798370361
      ],
      [
        "▁যায়",
        -6.510544776916504
      ],
      [
        "?",
        -6.525076866149902
      ],
      [
        "▁is",
        -6.527228355407715
      ],
      [
        "▁তাদের",
        -6.529504299163818
      ],
      [
        "▁সময়",
        -6.584404468536377
      ],
      [
        "▁-",
        -6.596500396728516
      ],
      [
        "▁বলে",
        -6.604544639587402
      ],
      [
        "▁দিয়ে",
        -6.617520332336426
      ],
      [
        "▁পর",
        -6.6353983879089355
      ],
      [
        "তে",
        -6.637364387512207
      ],
      [
        "টি",
        -6.644524574279785
      ],
      [
        "▁করার",
        -6.651638507843018
      ],
      [
        "▁সাথে",
        -6.688108921051025
      ],
      [
        "▁কিন্তু",
        -6.706861972808838
      ],
      [
        "▁তবে",
        -6.760488986968994
      ],
      [
        "▁আমি",
        -6.767547607421875
      ],
      [
        "▁কথা",
        -6.7730183601379395
      ],
      [
        "▁সঙ্গে",
        -6.80528450012207
      ],
      [
        "▁that",
        -6.807358264923096
      ],
      [
        "▁ছিল",
        -6.813828468322754
      ],
      [
        "▁পারে",
        -6.820173263549805
      ],
      [
        "▁তারা",
        -6.837263584136963
      ],
      [
        "▁তা",
        -6.850701332092285
      ],
      [
        "▁রয়েছে",
        -6.855047225952148
      ],
      [
        "▁আমার",
        -6.868460178375244
      ],
      [
        "▁কিছু",
        -6.873118877410889
      ],
      [
        "য়",
        -6.886589050292969
      ],
      [
        "▁আমাদের",
        -6.893077373504639
      ],
      [
        "▁শুরু",
        -6.895314693450928
      ],
      [
        "▁কাজ",
        -6.895771026611328
      ],
      [
        "▁for",
        -6.902584075927734
      ],
      [
        "▁আমরা",
        -6.914963722229004
      ],
      [
        "দের",
        -6.91577672958374
      ],
      [
        "▁সেই",
        -6.918610572814941
      ],
      [
        "▁হচ্ছে",
        -6.963411331176758
      ],
      [
        "▁আপনার",
        -6.965438365936279
      ],
      [
        "রা",
        -6.969931125640869
      ],
      [
        "▁সে",
        -6.972474098205566
      ],
      [
        "▁অনেক",
        -6.984100341796875
      ],
      [
        "/",
        -6.989221572875977
      ],
      [
        "▁বিভিন্ন",
        -6.992949962615967
      ],
      [
        "ন",
        -7.005395412445068
      ],
      [
        "▁কি",
        -7.0147318840026855
      ],
      [
        "▁আছে",
        -7.021862506866455
      ],
      [
        "▁কোনো",
        -7.026968955993652
      ],
      [
        "▁হিসেবে",
        -7.032282829284668
      ],
      [
        "▁সালে",
        -7.039172172546387
      ],
      [
        "▁কোন",
        -7.041490077972412
      ],
      [
        "▁“",
        -7.041807651519775
      ],
      [
        "▁হাজার",
        -7.055166721343994
      ],
      [
        "▁হতে",
        -7.074950695037842
      ],
      [
        "▁যা",
        -7.077662944793701
      ],
      [
        "▁করেছেন",
        -7.078321933746338
      ],
      [
        "▁টাকা",
        -7.08443546295166
      ],
      [
        "▁The",
        -7.10452938079834
      ],
      [
        "▁জন",
        -7.10727596282959
      ],
      [
        "▁করেছে",
        -7.1130452156066895
      ],
      [
        "▁প্রথম",
        -7.127583026885986
      ],
      [
        "▁ছিলেন",
        -7.137856483459473
      ],
      [
        "▁বেশি",
        -7.1403422355651855
      ],
      [
        "▁বছর",
        -7.140729904174805
      ],
      [
        "া",
        -7.141944408416748
      ],
      [
        "▁are",
        -7.148055553436279
      ],
      [
        "▁থাকে",
        -7.156946182250977
      ],
      [
        "স",
        -7.1621246337890625
      ],
      [
        "▁জানান",
        -7.162781715393066
      ],
      [
        "▁পর্যন্ত",
        -7.164261817932129
      ],
      [
        "▁বাংলাদেশ",
        -7.16475772857666
      ],
      [
        "▁আগে",
        -7.16763162612915
      ],
      [
        "▁তাই",
        -7.190232753753662
      ],
      [
        "▁সব",
        -7.194016933441162
      ],
      [
        "▁আপনি",
        -7.2044196128845215
      ],
      [
        "সহ",
        -7.21404504776001
      ],
      [
        "▁নতুন",
        -7.214480876922607
      ],
      [
        "▁দেখা",
        -7.215509414672852
      ],
      [
        "▁with",
        -7.220686912536621
      ],
      [
        "▁as",
        -7.225315093994141
      ],
      [
        "▁আরও",
        -7.227157592773437
      ],
      [
        "▁কাছে",
        -7.23390531539917
      ],
      [
        "!",
        -7.23883581161499
      ],
      [
        "▁নয়",
        -7.243160247802734
      ],
      [
        "▁on",
        -7.246445178985596
      ],
      [
        "▁এখন",
        -7.260461807250977
      ],
      [
        "'",
        -7.269810676574707
      ],
      [
        "ি",
        -7.275837898254395
      ],
      [
        "▁দিন",
        -7.278213977813721
      ],
      [
        "ing",
        -7.27952766418457
      ],
      [
        "▁এটি",
        -7.279709815979004
      ],
      [
        "▁নেই",
        -7.2798237800598145
      ],
      [
        "▁মাধ্যমে",
        -7.281907081604004
      ],
      [
        "▁পুলিশ",
        -7.289487838745117
      ],
      [
        "▁দুই",
        -7.28965425491333
      ],
      [
        "▁গত",
        -7.300980567932129
      ],
      [
        "▁মনে",
        -7.306940078735352
      ],
      [
        "▁be",
        -7.32044792175293
      ],
      [
        "▁তাকে",
        -7.3244171142578125
      ],
      [
        "▁যদি",
        -7.337286472320557
      ],
      [
        "▁একটা",
        -7.354129791259766
      ],
      [
        "ed",
        -7.361997127532959
      ],
      [
        "▁গেছে",
        -7.383281230926514
      ],
      [
        "▁দিকে",
        -7.384844303131104
      ],
      [
        "▁পরে",
        -7.385212898254395
      ],
      [
        "▁ওই",
        -7.386911869049072
      ],
      [
        "▁একজন",
        -7.391401767730713
      ],
      [
        "▁বড়",
        -7.391417503356934
      ],
      [
        "▁ব্যবহার",
        -7.399722099304199
      ],
      [
        "▁or",
        -7.402492523193359
      ],
      [
        "টা",
        -7.407316207885742
      ],
      [
        "▁এমন",
        -7.408267498016357
      ],
      [
        ";",
        -7.415585517883301
      ],
      [
        "▁it",
        -7.424928665161133
      ],
      [
        "▁দেওয়া",
        -7.428787708282471
      ],
      [
        "▁শেষ",
        -7.439181327819824
      ],
      [
        "▁জেলা",
        -7.440112590789795
      ],
      [
        "▁নাম",
        -7.452044486999512
      ],
      [
        "▁দেশের",
        -7.454808712005615
      ],
      [
        "▁by",
        -7.4627509117126465
      ],
      [
        "▁সালের",
        -7.463139057159424
      ],
      [
        "▁ইসলাম",
        -7.467530727386475
      ],
      [
        "▁প্রায়",
        -7.471224784851074
      ],
      [
        "▁প্রধান",
        -7.475119590759277
      ],
      [
        "▁প্রতি",
        -7.481734275817871
      ],
      [
        "▁আজ",
        -7.487273216247559
      ],
      [
        "▁মতো",
        -7.497428417205811
      ],
      [
        "▁হলে",
        -7.499485015869141
      ],
      [
        "▁২",
        -7.5024495124816895
      ],
      [
        "▁দিতে",
        -7.506307125091553
      ],
      [
        "▁জাতীয়",
        -7.509657382965088
      ],
      [
        "▁–",
        -7.512851238250732
      ],
      [
        "▁:",
        -7.513696193695068
      ],
      [
        "▁তৈরি",
        -7.514162063598633
      ],
      [
        "ক",
        -7.5208330154418945
      ],
      [
        "▁তাঁর",
        -7.5222554206848145
      ],
      [
        "▁কারণে",
        -7.527233600616455
      ],
      [
        "▁১",
        -7.531219959259033
      ],
      [
        "ী",
        -7.534334182739258
      ],
      [
        "▁মানুষ",
        -7.548556804656982
      ],
      [
        "▁ভালো",
        -7.551322937011719
      ],
      [
        "▁সম্পাদক",
        -7.555404186248779
      ],
      [
        "▁সরকার",
        -7.55891227722168
      ],
      [
        "▁from",
        -7.572106838226318
      ],
      [
        "▁উপজেলা",
        -7.576494693756104
      ],
      [
        "▁যাবে",
        -7.577133655548096
      ],
      [
        "▁সাধারণ",
        -7.58128547668457
      ],
      [
        "▁।",
        -7.585419178009033
      ],
      [
        "▁মো",
        -7.586859226226807
      ],
      [
        "▁তথ্য",
        -7.591844081878662
      ],
      [
        "▁তো",
        -7.603753566741943
      ],
      [
        "▁বলা",
        -7.604287624359131
      ],
      [
        "এ",
        -7.610435009002685
      ],
      [
        "▁ধরে",
        -7.616909027099609
      ],
      [
        "▁রহমান",
        -7.61729097366333
      ],
      [
        "▁কারণ",
        -7.621920108795166
      ],
      [
        "▁হলো",
        -7.622715950012207
      ],
      [
        "▁\"",
        -7.624266147613525
      ],
      [
        "▁you",
        -7.638725757598877
      ],
      [
        "▁বাংলাদেশের",
        -7.64382791519165
      ],
      [
        "▁পারেন",
        -7.64605712890625
      ],
      [
        "▁সদস্য",
        -7.646771430969238
      ],
      [
        "▁মানুষের",
        -7.649016380310059
      ],
      [
        "▁৩",
        -7.650251388549805
      ],
      [
        "▁was",
        -7.6550726890563965
      ],
      [
        "▁তখন",
        -7.659804344177246
      ],
      [
        "▁করুন",
        -7.662156581878662
      ],
      [
        "▁বিরুদ্ধে",
        -7.662668228149414
      ],
      [
        "▁খুব",
        -7.665669918060303
      ],
      [
        "▁can",
        -7.667618274688721
      ],
      [
        "▁নিজের",
        -7.669039726257324
      ],
      [
        "▁মা",
        -7.669486999511719
      ],
      [
        "▁হল",
        -7.669923305511475
      ],
      [
        "▁জানা",
        -7.676482200622559
      ],
      [
        "▁হোসেন",
        -7.688094139099121
      ],
      [
        "▁পাওয়া",
        -7.691166877746582
      ],
      [
        "▁শেখ",
        -7.701409339904785
      ],
      [
        "▁করছে",
        -7.711121082305908
      ],
      [
        "▁হয়েছিল",
        -7.711132049560547
      ],
      [
        "▁বিষয়ে",
        -7.718559265136719
      ],
      [
        "▁৫",
        -7.719361782073975
      ],
      [
        "▁আরো",
        -7.734694957733154
      ],
      [
        "ম",
        -7.7350921630859375
      ],
      [
        "না",
        -7.740410327911377
      ],
      [
        "▁have",
        -7.742832660675049
      ],
      [
        "▁দেন",
        -7.747064590454102
      ],
      [
        "▁ঢাকা",
        -7.747336387634277
      ],
      [
        "”",
        -7.749911308288574
      ],
      [
        "▁দেয়",
        -7.75089168548584
      ],
      [
        "ল",
        -7.757175922393799
      ],
      [
        "▁সভাপতি",
        -7.761079788208008
      ],
      [
        "▁ফলে",
        -7.765543460845947
      ],
      [
        "▁১০",
        -7.772984027862549
      ],
      [
        "▁an",
        -7.774975776672363
      ],
      [
        "▁at",
        -7.782555103302002
      ],
      [
        "▁বিশেষ",
        -7.784119129180908
      ],
      [
        "d",
        -7.789877414703369
      ],
      [
        "▁কে",
        -7.791122436523437
      ],
      [
        "▁লাখ",
        -7.794648170471191
      ],
      [
        "▁পড়ে",
        -7.7982940673828125
      ],
      [
        "▁হওয়ার",
        -7.80219030380249
      ],
      [
        "▁this",
        -7.805455207824707
      ],
      [
        "▁উপর",
        -7.806578636169434
      ],
      [
        "ঃ",
        -7.808292865753174
      ],
      [
        "▁তাহলে",
        -7.80989408493042
      ],
      [
        "এর",
        -7.813261985778809
      ],
      [
        "▁যখন",
        -7.816617965698242
      ],
      [
        "▁আবার",
        -7.819667816162109
      ],
      [
        "▁বেশ",
        -7.819821834564209
      ],
      [
        "গুলো",
        -7.82226037979126
      ],
      [
        "t",
        -7.83323860168457
      ],
      [
        "▁কেউ",
        -7.834283828735352
      ],
      [
        "▁করবে",
        -7.836965084075928
      ],
      [
        "▁৪",
        -7.84214973449707
      ],
      [
        "▁দলের",
        -7.843504428863525
      ],
      [
        "তা",
        -7.847375869750977
      ],
      [
        "▁not",
        -7.850372791290283
      ],
      [
        "▁হন",
        -7.8516740798950195
      ],
      [
        "▁দেশে",
        -7.861349582672119
      ],
      [
        "▁উপজেলার",
        -7.8661675453186035
      ],
      [
        "▁আওয়ামী",
        -7.873286247253418
      ],
      [
        "▁গিয়ে",
        -7.875434875488281
      ],
      [
        "▁অংশ",
        -7.876956939697266
      ],
      [
        "▁সহ",
        -7.879500865936279
      ],
      [
        "▁ধরনের",
        -7.882673740386963
      ],
      [
        "▁যেতে",
        -7.885983467102051
      ],
      [
        "▁অভিযোগ",
        -7.887466907501221
      ],
      [
        "▁চলে",
        -7.890684127807617
      ],
      [
        "▁সেখানে",
        -7.896893978118896
      ],
      [
        "▁অন্য",
        -7.897922992706299
      ],
      [
        "▁দল",
        -7.900158882141113
      ],
      [
        "▁এতে",
        -7.900327205657959
      ],
      [
        "),",
        -7.901341915130615
      ],
      [
        "▁নামে",
        -7.901939392089844
      ],
      [
        "▁বছরের",
        -7.917688846588135
      ],
      [
        "▁তিন",
        -7.918722629547119
      ],
      [
        "▁এসব",
        -7.919315814971924
      ],
      [
        "▁দেয়া",
        -7.921969890594482
      ],
      [
        "▁টি",
        -7.922415733337402
      ],
      [
        "▁এটা",
        -7.926970481872559
      ],
      [
        "▁কম",
        -7.931282043457031
      ],
      [
        "▁বন্ধ",
        -7.938055038452148
      ],
      [
        "▁নিতে",
        -7.942244529724121
      ],
      [
        "▁কী",
        -7.943894863128662
      ],
      [
        "\"",
        -7.944757461547852
      ],
      [
        "▁প্রধানমন্ত্রী",
        -7.952107906341553
      ],
      [
        "▁প্রকাশ",
        -7.956775188446045
      ],
      [
        "▁চেষ্টা",
        -7.957579135894775
      ],
      [
        "▁শিক্ষা",
        -7.960257053375244
      ],
      [
        "▁একই",
        -7.962129592895508
      ],
      [
        "ার",
        -7.962276935577393
      ],
      [
        "▁ব্যবস্থা",
        -7.964858055114746
      ],
      [
        "▁ক্ষেত্রে",
        -7.965826511383057
      ],
      [
        "▁A",
        -7.969669342041016
      ],
      [
        "▁কোটি",
        -7.975370407104492
      ],
      [
        "▁উত্তর",
        -7.983261108398437
      ],
      [
        "▁৬",
        -7.985328197479248
      ],
      [
        "▁খবর",
        -7.989448070526123
      ],
      [
        "▁বিশ্ববিদ্যালয়",
        -7.989639282226563
      ],
      [
        "▁ভারতের",
        -7.990044593811035
      ],
      [
        "▁যার",
        -7.9943928718566895
      ],
      [
        "▁থাকা",
        -8.003328323364258
      ],
      [
        "▁করবেন",
        -8.007104873657227
      ],
      [
        "▁উপস্থিত",
        -8.011483192443848
      ],
      [
        "▁their",
        -8.011887550354004
      ],
      [
        "▁শুধু",
        -8.022428512573242
      ],
      [
        "▁ছেলে",
        -8.02264404296875
      ],
      [
        "▁এবার",
        -8.026997566223145
      ],
      [
        "▁কর্মকর্তা",
        -8.027322769165039
      ],
      [
        "▁যাচ্ছে",
        -8.030564308166504
      ],
      [
        "▁চেয়ারম্যান",
        -8.031440734863281
      ],
      [
        "▁এখানে",
        -8.035985946655273
      ],
      [
        "▁করি",
        -8.03719425201416
      ],
      [
        "▁যারা",
        -8.041736602783203
      ],
      [
        "ত",
        -8.04834270477295
      ],
      [
        "▁খান",
        -8.050905227661133
      ],
      [
        "▁তুলে",
        -8.055718421936035
      ],
      [
        "▁দাবি",
        -8.055804252624512
      ],
      [
        "ly",
        -8.056294441223145
      ],
      [
        "▁নিশ্চিত",
        -8.057350158691406
      ],
      [
        "▁দু",
        -8.059771537780762
      ],
      [
        "▁এলাকায়",
        -8.060080528259277
      ],
      [
        "▁সামনে",
        -8.060281753540039
      ],
      [
        "▁ভারতীয়",
        -8.06185531616211
      ],
      [
        "▁অন্যান্য",
        -8.062416076660156
      ],
      [
        "▁সম্পর্কে",
        -8.062585830688477
      ],
      [
        "▁your",
        -8.063481330871582
      ],
      [
        "▁দেশ",
        -8.0691556930542
      ],
      [
        "▁সকল",
        -8.069680213928223
      ],
      [
        "▁করছেন",
        -8.070283889770508
      ],
      [
        "▁হাতে",
        -8.070446014404297
      ],
      [
        "▁এরপর",
        -8.078332901000977
      ],
      [
        "▁ছবি",
        -8.082571029663086
      ],
      [
        "▁ঘটনা",
        -8.084044456481934
      ],
      [
        "▁করোনা",
        -8.08624267578125
      ],
      [
        "▁ঘোষণা",
        -8.088062286376953
      ],
      [
        "▁সরকারের",
        -8.088153839111328
      ],
      [
        "▁স্থানীয়",
        -8.088425636291504
      ],
      [
        "▁In",
        -8.094091415405273
      ],
      [
        "▁দেখে",
        -8.095979690551758
      ],
      [
        "▁দেখতে",
        -8.0989990234375
      ],
      [
        "▁I",
        -8.110321044921875
      ],
      [
        "▁which",
        -8.110967636108398
      ],
      [
        "▁they",
        -8.114113807678223
      ],
      [
        "▁থাকবে",
        -8.11430835723877
      ],
      [
        "▁কেন",
        -8.115785598754883
      ],
      [
        "▁ওপর",
        -8.117132186889648
      ],
      [
        "▁পাশাপাশি",
        -8.120902061462402
      ],
      [
        "▁নারী",
        -8.122732162475586
      ],
      [
        "▁সবচেয়ে",
        -8.125679969787598
      ],
      [
        "নি",
        -8.12763786315918
      ],
      [
        "▁ছাড়া",
        -8.129009246826172
      ],
      [
        "▁যেন",
        -8.1315336227417
      ],
      [
        "▁জীবন",
        -8.133672714233398
      ],
      [
        "▁সরকারি",
        -8.134112358093262
      ],
      [
        "▁অনুষ্ঠিত",
        -8.134795188903809
      ],
      [
        "▁দ্বিতীয়",
        -8.136271476745605
      ],
      [
        "▁will",
        -8.136906623840332
      ],
      [
        "▁নির্বাচন",
        -8.140612602233887
      ],
      [
        "▁ঠিক",
        -8.140759468078613
      ],
      [
        "▁আল",
        -8.142654418945312
      ],
      [
        "▁সুযোগ",
        -8.143552780151367
      ],
      [
        "▁আন্তর্জাতিক",
        -8.148746490478516
      ],
      [
        "▁যান",
        -8.148967742919922
      ],
      [
        "▁পারবেন",
        -8.149273872375488
      ],
      [
        "▁এসে",
        -8.150371551513672
      ],
      [
        "er",
        -8.151718139648438
      ],
      [
        "▁অর্থ",
        -8.158390045166016
      ],
      [
        "ভাবে",
        -8.160719871520996
      ],
      [
        "▁ছোট",
        -8.162601470947266
      ],
      [
        "▁more",
        -8.16330623626709
      ],
      [
        "▁যেমন",
        -8.166242599487305
      ],
      [
        "▁করেছিলেন",
        -8.167881965637207
      ],
      [
        "▁মৃত্যু",
        -8.169057846069336
      ],
      [
        "গুলি",
        -8.175838470458984
      ],
      [
        "▁সংখ্যা",
        -8.175910949707031
      ],
      [
        "▁৭",
        -8.176335334777832
      ],
      [
        "▁হাসপাতালে",
        -8.178953170776367
      ],
      [
        "▁সময়ে",
        -8.181148529052734
      ],
      [
        "বি",
        -8.182985305786133
      ],
      [
        "▁মে",
        -8.183819770812988
      ],
      [
        "▁হাত",
        -8.185372352600098
      ],
      [
        "▁সমস্যা",
        -8.187806129455566
      ],
      [
        "▁স্বাস্থ্য",
        -8.188922882080078
      ],
      [
        "▁করলে",
        -8.190495491027832
      ],
      [
        "▁অ",
        -8.194844245910645
      ],
      [
        "▁পরীক্ষা",
        -8.196070671081543
      ],
      [
        "▁বাংলা",
        -8.196410179138184
      ],
      [
        "▁has",
        -8.197025299072266
      ],
      [
        "▁আসে",
        -8.19792366027832
      ],
      [
        "▁থেকেই",
        -8.199811935424805
      ],
      [
        "▁জেলার",
        -8.201644897460938
      ],
      [
        "▁হয়েছেন",
        -8.203956604003906
      ],
      [
        "▁হিসাবে",
        -8.2047758102417
      ],
      [
        "▁৮",
        -8.205387115478516
      ],
      [
        "▁কোনও",
        -8.215518951416016
      ],
      [
        "▁২০",
        -8.220595359802246
      ],
      [
        "ব",
        -8.225752830505371
      ],
      [
        "▁গ্রামের",
        -8.228133201599121
      ],
      [
        "পুর",
        -8.22873592376709
      ],
      [
        "▁অনুযায়ী",
        -8.232553482055664
      ],
      [
        "▁নেতা",
        -8.234077453613281
      ],
      [
        "▁বিষয়টি",
        -8.235187530517578
      ],
      [
        "▁দক্ষিণ",
        -8.236611366271973
      ],
      [
        "▁মত",
        -8.238663673400879
      ],
      [
        "▁জানিয়েছেন",
        -8.240667343139648
      ],
      [
        "▁ই",
        -8.240851402282715
      ],
      [
        "▁হওয়া",
        -8.240912437438965
      ],
      [
        "▁দিয়েছে",
        -8.241715431213379
      ],
      [
        "▁বি",
        -8.242578506469727
      ],
      [
        "▁হয়নি",
        -8.242932319641113
      ],
      [
        "▁সিদ্ধান্ত",
        -8.248682975769043
      ],
      [
        "▁আগামী",
        -8.250381469726562
      ],
      [
        "▁ব্যক্তি",
        -8.251211166381836
      ],
      [
        "▁গ্রহণ",
        -8.25645637512207
      ],
      [
        "▁মাঝে",
        -8.257049560546875
      ],
      [
        "▁লীগের",
        -8.268540382385254
      ],
      [
        "▁সাবেক",
        -8.268604278564453
      ],
      [
        "জ",
        -8.272964477539062
      ],
      [
        "▁বলেছেন",
        -8.2754545211792
      ],
      [
        "(",
        -8.277817726135254
      ],
      [
        "▁বের",
        -8.279200553894043
      ],
      [
        "▁মামলা",
        -8.281718254089355
      ],
      [
        "▁মোট",
        -8.282163619995117
      ],
      [
        "▁|",
        -8.286751747131348
      ],
      [
        "▁আলী",
        -8.288725852966309
      ],
      [
        "▁রাখা",
        -8.29000186920166
      ],
      [
        "▁দায়িত্ব",
        -8.2926607131958
      ],
      [
        "e",
        -8.292783737182617
      ],
      [
        "▁১৫",
        -8.293354988098145
      ],
      [
        "▁বর্তমানে",
        -8.295907974243164
      ],
      [
        "▁বাড়ি",
        -8.298986434936523
      ],
      [
        "▁দুটি",
        -8.299139022827148
      ],
      [
        "▁শতাংশ",
        -8.300871849060059
      ],
      [
        "▁আক্রান্ত",
        -8.301398277282715
      ],
      [
        "▁পালন",
        -8.303942680358887
      ],
      [
        "▁চৌধুরী",
        -8.306745529174805
      ],
      [
        "▁রাখতে",
        -8.311929702758789
      ],
      [
        "িং",
        -8.314204216003418
      ],
      [
        "▁জন্ম",
        -8.317944526672363
      ],
      [
        "▁চলচ্চিত্র",
        -8.318282127380371
      ],
      [
        "শ",
        -8.319087982177734
      ],
      [
        "▁এছাড়া",
        -8.320859909057617
      ],
      [
        "▁সম্ভব",
        -8.321989059448242
      ],
      [
        "▁রেখে",
        -8.325092315673828
      ],
      [
        "▁থাকতে",
        -8.32559871673584
      ],
      [
        "১",
        -8.326486587524414
      ],
      [
        "▁দিয়েছেন",
        -8.329039573669434
      ],
      [
        "▁we",
        -8.329130172729492
      ],
      [
        "▁হক",
        -8.330412864685059
      ],
      [
        "▁মার্কিন",
        -8.330674171447754
      ],
      [
        "▁সেটা",
        -8.33177661895752
      ],
      [
        "▁শেষে",
        -8.332464218139648
      ],
      [
        "▁সকাল",
        -8.332735061645508
      ],
      [
        "▁এম",
        -8.334758758544922
      ],
      [
        "▁কলেজ",
        -8.3350191116333
      ],
      [
        "▁বিষয়",
        -8.337597846984863
      ],
      [
        "▁আমাকে",
        -8.341802597045898
      ],
      [
        "▁আলোচনা",
        -8.3427734375
      ],
      [
        "▁উদ্ধার",
        -8.347087860107422
      ],
      [
        "▁পানি",
        -8.347212791442871
      ],
      [
        "।’",
        -8.347355842590332
      ],
      [
        "▁বক্তব্য",
        -8.350544929504395
      ],
      [
        "▁পেয়ে",
        -8.352029800415039
      ],
      [
        "▁পরিবারের",
        -8.352548599243164
      ],
      [
        "▁হলেও",
        -8.352952003479004
      ],
      [
        "▁but",
        -8.353118896484375
      ],
      [
        "▁বলতে",
        -8.35340690612793
      ],
      [
        "▁also",
        -8.354009628295898
      ],
      [
        "▁প্রয়োজন",
        -8.356793403625488
      ],
      [
        "▁প্রদান",
        -8.358511924743652
      ],
      [
        "▁আ",
        -8.359830856323242
      ],
      [
        "▁চার",
        -8.360889434814453
      ],
      [
        "▁one",
        -8.361572265625
      ],
      [
        "al",
        -8.362606048583984
      ],
      [
        "▁এলাকার",
        -8.364748001098633
      ],
      [
        "▁were",
        -8.366764068603516
      ],
      [
        "▁ভারত",
        -8.36789321899414
      ],
      [
        "▁all",
        -8.371410369873047
      ],
      [
        "y",
        -8.372906684875488
      ],
      [
        "▁দ্বারা",
        -8.374299049377441
      ],
      [
        "▁বাবা",
        -8.376062393188477
      ],
      [
        "▁ইউনিয়ন",
        -8.3787260055542
      ],
      [
        "মা",
        -8.380186080932617
      ],
      [
        "▁নেওয়া",
        -8.383370399475098
      ],
      [
        "▁একটু",
        -8.385512351989746
      ],
      [
        "▁আপনাকে",
        -8.38609790802002
      ],
      [
        "▁জানতে",
        -8.386154174804688
      ],
      [
        "▁নানা",
        -8.38749885559082
      ],
      [
        "▁ড",
        -8.38857650756836
      ],
      [
        "▁মাত্র",
        -8.391596794128418
      ],
      [
        "▁১২",
        -8.39207649230957
      ],
      [
        "▁রান",
        -8.392691612243652
      ],
      [
        "▁রাতে",
        -8.394575119018555
      ],
      [
        "▁যাওয়ার",
        -8.395683288574219
      ],
      [
        "▁'",
        -8.395831108093262
      ],
      [
        "▁প্রশ্ন",
        -8.40069580078125
      ],
      [
        "▁সদর",
        -8.401437759399414
      ],
      [
        "▁আইন",
        -8.404292106628418
      ],
      [
        "▁মাস",
        -8.409174919128418
      ],
      [
        "▁বিভাগের",
        -8.414288520812988
      ],
      [
        "▁থানার",
        -8.414392471313477
      ],
      [
        "▁মোহাম্মদ",
        -8.417672157287598
      ],
      [
        "▁৯",
        -8.422591209411621
      ],
      [
        "▁যেখানে",
        -8.422691345214844
      ],
      [
        "ো",
        -8.423054695129395
      ],
      [
        "▁সোমবার",
        -8.424094200134277
      ],
      [
        "▁গুরুত্বপূর্ণ",
        -8.42699146270752
      ],
      [
        "▁সংবাদ",
        -8.42845344543457
      ],
      [
        "▁about",
        -8.430479049682617
      ],
      [
        "▁২৪",
        -8.431587219238281
      ],
      [
        "▁রাজনৈতিক",
        -8.432894706726074
      ],
      [
        "▁৩০",
        -8.434287071228027
      ],
      [
        "▁যাওয়া",
        -8.438253402709961
      ],
      [
        "▁মারা",
        -8.440996170043945
      ],
      [
        "▁বুধবার",
        -8.441246032714844
      ],
      [
        "▁ইউনিয়নের",
        -8.442235946655273
      ],
      [
        "▁ভাবে",
        -8.442517280578613
      ],
      [
        "▁আলম",
        -8.442581176757812
      ],
      [
        "।”",
        -8.446327209472656
      ],
      [
        "▁তথ্যসূত্র",
        -8.449857711791992
      ],
      [
        "▁অনুষ্ঠানে",
        -8.4512939453125
      ],
      [
        "▁ফিরে",
        -8.460285186767578
      ],
      [
        "▁চেয়ে",
        -8.460740089416504
      ],
      [
        "▁অবস্থায়",
        -8.462767601013184
      ],
      [
        "▁বৃহস্পতিবার",
        -8.463807106018066
      ],
      [
        "▁মার্চ",
        -8.464753150939941
      ],
      [
        "▁দেওয়ার",
        -8.467287063598633
      ],
      [
        "▁This",
        -8.468948364257812
      ],
      [
        "▁উদ্দিন",
        -8.469585418701172
      ],
      [
        "▁মঙ্গলবার",
        -8.470077514648438
      ],
      [
        "▁সবাই",
        -8.471673965454102
      ],
      [
        "▁রাত",
        -8.473409652709961
      ],
      [
        "▁সামাজিক",
        -8.47436237335205
      ],
      [
        "▁নি",
        -8.47526741027832
      ],
      [
        "▁ভাল",
        -8.475326538085938
      ],
      [
        "▁এগিয়ে",
        -8.475647926330566
      ],
      [
        "টির",
        -8.476766586303711
      ],
      [
        "২",
        -8.478282928466797
      ],
      [
        "▁খাবার",
        -8.48073959350586
      ],
      [
        "▁ঘটে",
        -8.481157302856445
      ],
      [
        "▁পরিচালক",
        -8.484346389770508
      ],
      [
        "▁শিক্ষক",
        -8.48492431640625
      ],
      [
        "কা",
        -8.486316680908203
      ],
      [
        "▁হাসান",
        -8.487189292907715
      ],
      [
        "▁other",
        -8.48818302154541
      ],
      [
        "▁১১",
        -8.488508224487305
      ],
      [
        "▁ভিডিও",
        -8.48891544342041
      ],
      [
        "▁১৮",
        -8.489679336547852
      ],
      [
        "▁শনিবার",
        -8.490068435668945
      ],
      [
        "▁পুলিশের",
        -8.490375518798828
      ],
      [
        "▁যোগ",
        -8.49284839630127
      ],
      [
        "▁অবস্থান",
        -8.500311851501465
      ],
      [
        "▁বাইরে",
        -8.500716209411621
      ],
      [
        "▁গেলে",
        -8.502911567687988
      ],
      [
        "▁সকালে",
        -8.50704574584961
      ],
      [
        "▁অব",
        -8.509004592895508
      ],
      [
        "▁কাজে",
        -8.509089469909668
      ],
      [
        "▁উল্লেখ",
        -8.509454727172852
      ],
      [
        "▁বর্তমান",
        -8.51213550567627
      ],
      [
        "▁ঘটনায়",
        -8.515809059143066
      ],
      [
        "▁গেল",
        -8.516684532165527
      ],
      [
        "▁ক্রিকেট",
        -8.517541885375977
      ],
      [
        "▁It",
        -8.518190383911133
      ],
      [
        "সি",
        -8.51855182647705
      ],
      [
        "▁উচ্চ",
        -8.522770881652832
      ],
      [
        "▁প্রাথমিক",
        -8.523255348205566
      ],
      [
        "▁শুক্রবার",
        -8.526078224182129
      ],
      [
        "▁সৃষ্টি",
        -8.526362419128418
      ],
      [
        "▁ভাই",
        -8.527039527893066
      ],
      [
        "▁মোঃ",
        -8.527442932128906
      ],
      [
        "a",
        -8.52833366394043
      ],
      [
        "▁মন্তব্য",
        -8.529293060302734
      ],
      [
        "▁আহমেদ",
        -8.530832290649414
      ],
      [
        "▁কেন্দ্রীয়",
        -8.534537315368652
      ],
      [
        "▁কিংবা",
        -8.535528182983398
      ],
      [
        "▁চলছে",
        -8.537988662719727
      ],
      [
        "▁দ্রুত",
        -8.540305137634277
      ],
      [
        "▁লাভ",
        -8.543713569641113
      ],
      [
        "▁বাড়িতে",
        -8.546719551086426
      ],
      [
        "▁যোগাযোগ",
        -8.54946517944336
      ],
      [
        "▁পুরস্কার",
        -8.549736022949219
      ],
      [
        "▁এদিকে",
        -8.549764633178711
      ],
      [
        "ুল",
        -8.551621437072754
      ],
      [
        "▁মূল",
        -8.551680564880371
      ],
      [
        "▁নিহত",
        -8.551806449890137
      ],
      [
        "▁দাম",
        -8.557238578796387
      ],
      [
        "▁বসে",
        -8.557633399963379
      ],
      [
        "–",
        -8.559306144714355
      ],
      [
        "▁তারপর",
        -8.56265640258789
      ],
      [
        "▁উন্নয়ন",
        -8.570210456848145
      ],
      [
        "▁কয়েক",
        -8.570323944091797
      ],
      [
        "▁গড়ে",
        -8.571969985961914
      ],
      [
        "▁ভর্তি",
        -8.572456359863281
      ],
      [
        "▁স্ত্রী",
        -8.573418617248535
      ],
      [
        "▁his",
        -8.57823657989502
      ],
      [
        "▁কেন্দ্র",
        -8.582868576049805
      ],
      [
        "▁দিনের",
        -8.582989692687988
      ],
      [
        "▁অতিরিক্ত",
        -8.583420753479004
      ],
      [
        "▁ব্যাপারে",
        -8.588775634765625
      ],
      [
        "▁পরিবর্তন",
        -8.589138984680176
      ],
      [
        "ং",
        -8.589190483093262
      ],
      [
        "▁আটক",
        -8.59072208404541
      ],
      [
        "ট",
        -8.591885566711426
      ],
      [
        "▁শিশু",
        -8.59197998046875
      ],
      [
        "▁আবেদন",
        -8.593171119689941
      ],
      [
        "▁সি",
        -8.593688011169434
      ],
      [
        "▁পাশে",
        -8.593981742858887
      ],
      [
        "▁বাংলাদেশে",
        -8.594017028808594
      ],
      [
        "▁অন্যতম",
        -8.59479808807373
      ],
      [
        "▁প্রতিনিধি",
        -8.598576545715332
      ],
      [
        "▁পান",
        -8.600255012512207
      ],
      [
        "▁বিএনপি",
        -8.601545333862305
      ],
      [
        "▁জুন",
        -8.604762077331543
      ],
      [
        "▁বার",
        -8.605681419372559
      ],
      [
        "▁জুলাই",
        -8.605765342712402
      ],
      [
        "▁আশা",
        -8.606792449951172
      ],
      [
        "▁অথবা",
        -8.607438087463379
      ],
      [
        "▁বিশ্ব",
        -8.610489845275879
      ],
      [
        "▁কমিটির",
        -8.611004829406738
      ],
      [
        "—",
        -8.613275527954102
      ],
      [
        "▁বিক্রি",
        -8.613492012023926
      ],
      [
        "▁হার",
        -8.614319801330566
      ],
      [
        "▁পেতে",
        -8.61458969116211
      ],
      [
        "▁মাসে",
        -8.614731788635254
      ],
      [
        "সা",
        -8.61502456665039
      ],
      [
        "▁যাতে",
        -8.615479469299316
      ],
      [
        "▁পাঁচ",
        -8.6175537109375
      ],
      [
        "ড",
        -8.618021965026855
      ],
      [
        "▁এসেছে",
        -8.618459701538086
      ],
      [
        "লি",
        -8.618553161621094
      ],
      [
        "▁পা",
        -8.61864185333252
      ],
      [
        "▁থাকেন",
        -8.624429702758789
      ],
      [
        "▁নির্বাচনে",
        -8.625378608703613
      ],
      [
        "▁বিশ্বের",
        -8.625785827636719
      ],
      [
        "▁নিজেদের",
        -8.626609802246094
      ],
      [
        "▁অক্টোবর",
        -8.626873016357422
      ],
      [
        "▁চাই",
        -8.627056121826172
      ],
      [
        "▁পায়",
        -8.627996444702148
      ],
      [
        "▁লেখা",
        -8.630698204040527
      ],
      [
        "দ",
        -8.63118839263916
      ],
      [
        "▁সংসদ",
        -8.631753921508789
      ],
      [
        "বে",
        -8.634830474853516
      ],
      [
        "১৯",
        -8.635276794433594
      ],
      [
        "▁এপ্রিল",
        -8.635298728942871
      ],
      [
        "in",
        -8.63553237915039
      ],
      [
        "▁পরিবার",
        -8.635997772216797
      ],
      [
        "ছে",
        -8.636418342590332
      ],
      [
        "▁ডেস্ক",
        -8.636826515197754
      ],
      [
        "▁থাকার",
        -8.638017654418945
      ],
      [
        "লা",
        -8.638289451599121
      ],
      [
        "▁who",
        -8.640083312988281
      ],
      [
        "বা",
        -8.643062591552734
      ],
      [
        "▁রাখেন",
        -8.643352508544922
      ],
      [
        "▁বিশ্বাস",
        -8.64688491821289
      ],
      [
        "▁১৪",
        -8.648749351501465
      ],
      [
        "▁মোবাইল",
        -8.64981460571289
      ],
      [
        "▁জনের",
        -8.652444839477539
      ],
      [
        "▁জয়",
        -8.653902053833008
      ],
      [
        "▁স্কুল",
        -8.654989242553711
      ],
      [
        "প",
        -8.656143188476562
      ],
      [
        "▁সেপ্টেম্বর",
        -8.656158447265625
      ],
      [
        "▁may",
        -8.657146453857422
      ],
      [
        "▁উঠে",
        -8.65780258178711
      ],
      [
        "▁সারা",
        -8.65900707244873
      ],
      [
        "▁চিকিৎসা",
        -8.660131454467773
      ],
      [
        "com",
        -8.661011695861816
      ],
      [
        "▁বিয়ে",
        -8.66195011138916
      ],
      [
        "▁আহত",
        -8.662585258483887
      ],
      [
        "▁যদিও",
        -8.662595748901367
      ],
      [
        "▁he",
        -8.662869453430176
      ],
      [
        "▁জানিয়েছে",
        -8.663009643554688
      ],
      [
        "্",
        -8.663588523864746
      ],
      [
        "▁ঘরে",
        -8.666955947875977
      ],
      [
        "▁মুখে",
        -8.66845417022705
      ],
      [
        "▁স",
        -8.66934871673584
      ],
      [
        "▁ডা",
        -8.669507026672363
      ],
      [
        "▁than",
        -8.671998977661133
      ],
      [
        "▁ভোট",
        -8.672430038452148
      ],
      [
        "es",
        -8.673104286193848
      ],
      [
        "▁সাহায্য",
        -8.674459457397461
      ],
      [
        "▁পক্ষে",
        -8.67592716217041
      ],
      [
        "▁প্রতিটি",
        -8.676117897033691
      ],
      [
        "▁প্রকাশিত",
        -8.677810668945312
      ],
      [
        "▁নভেম্বর",
        -8.679205894470215
      ],
      [
        "▁ফোন",
        -8.685256958007812
      ],
      [
        "▁time",
        -8.687610626220703
      ],
      [
        "▁ধর্ম",
        -8.688767433166504
      ],
      [
        "▁বিএনপির",
        -8.69206428527832
      ],
      [
        "▁বৃদ্ধি",
        -8.692689895629883
      ],
      [
        "▁পক্ষ",
        -8.694502830505371
      ],
      [
        "▁S",
        -8.695771217346191
      ],
      [
        "▁প্রতিষ্ঠান",
        -8.695858001708984
      ],
      [
        "▁been",
        -8.697991371154785
      ],
      [
        "▁সমস্ত",
        -8.700484275817871
      ],
      [
        "▁পরিচিত",
        -8.700983047485352
      ],
      [
        "▁when",
        -8.704678535461426
      ],
      [
        "▁উচিত",
        -8.70580768585205
      ],
      [
        "▁ক্ষমতা",
        -8.706612586975098
      ],
      [
        "▁এছাড়াও",
        -8.707719802856445
      ],
      [
        "▁হত্যা",
        -8.709415435791016
      ],
      [
        "▁লীগ",
        -8.712553977966309
      ],
      [
        "ফ",
        -8.714288711547852
      ],
      [
        "▁ঘটনার",
        -8.714632987976074
      ],
      [
        "▁২৫",
        -8.716611862182617
      ],
      [
        "▁আব্দুল",
        -8.716965675354004
      ],
      [
        "▁আসা",
        -8.717016220092773
      ],
      [
        "▁মেয়ে",
        -8.7171630859375
      ],
      [
        "৩",
        -8.718061447143555
      ],
      [
        "▁ডিসেম্বর",
        -8.718067169189453
      ],
      [
        "▁তুমি",
        -8.718191146850586
      ],
      [
        "▁so",
        -8.721820831298828
      ],
      [
        "▁মুখ",
        -8.721842765808105
      ],
      [
        "▁people",
        -8.722373962402344
      ],
      [
        "▁জানায়",
        -8.72270679473877
      ],
      [
        "▁চান",
        -8.722744941711426
      ],
      [
        "▁into",
        -8.72280502319336
      ],
      [
        "▁অবশ্যই",
        -8.726768493652344
      ],
      [
        "লে",
        -8.729747772216797
      ],
      [
        "▁নির্বাহী",
        -8.732447624206543
      ],
      [
        "▁নেন",
        -8.735132217407227
      ],
      [
        "▁শহরের",
        -8.735937118530273
      ],
      [
        "%",
        -8.736255645751953
      ],
      [
        "▁সর্বোচ্চ",
        -8.736861228942871
      ],
      [
        "▁মহিলা",
        -8.736958503723145
      ],
      [
        "▁কাছ",
        -8.739313125610352
      ],
      [
        "▁কয়েকটি",
        -8.740250587463379
      ],
      [
        "তার",
        -8.74084186553955
      ],
      [
        "▁জানানো",
        -8.741595268249512
      ],
      [
        "▁১৭",
        -8.742279052734375
      ],
      [
        "▁১৩",
        -8.744357109069824
      ],
      [
        "▁থাকলে",
        -8.744546890258789
      ],
      [
        "▁আছেন",
        -8.744880676269531
      ],
      [
        "▁নম্বর",
        -8.745141983032227
      ],
      [
        "▁যুক্ত",
        -8.745748519897461
      ],
      [
        "▁its",
        -8.746163368225098
      ],
      [
        "▁পরিচালনা",
        -8.746604919433594
      ],
      [
        "▁সেবা",
        -8.747791290283203
      ],
      [
        "▁সাড়ে",
        -8.749202728271484
      ],
      [
        "▁দিনে",
        -8.749316215515137
      ],
      [
        "▁পূর্ব",
        -8.750946044921875
      ],
      [
        "▁ব্যাংক",
        -8.751651763916016
      ],
      [
        "▁them",
        -8.751810073852539
      ],
      [
        "▁জানুয়ারি",
        -8.75194263458252
      ],
      [
        "বার",
        -8.751982688903809
      ],
      [
        "▁চট্টগ্রাম",
        -8.75296688079834
      ],
      [
        "▁মধ্য",
        -8.75414752960205
      ],
      [
        "▁১৬",
        -8.757108688354492
      ],
      [
        "▁চালু",
        -8.75714111328125
      ],
      [
        "▁these",
        -8.757246017456055
      ],
      [
        "৫",
        -8.75725269317627
      ],
      [
        "▁স্থান",
        -8.757323265075684
      ],
      [
        "▁করছি",
        -8.75998592376709
      ],
      [
        "n",
        -8.76119613647461
      ],
      [
        "▁সবার",
        -8.76513671875
      ],
      [
        "▁অবস্থা",
        -8.76733112335205
      ],
      [
        "▁পুরো",
        -8.768696784973145
      ],
      [
        "▁ডি",
        -8.769145011901855
      ],
      [
        "▁অর্থাৎ",
        -8.769662857055664
      ],
      [
        "ু",
        -8.770076751708984
      ],
      [
        "▁লক্ষ্য",
        -8.770636558532715
      ],
      [
        "▁অভিযান",
        -8.770956039428711
      ],
      [
        "▁হাসিনা",
        -8.771482467651367
      ],
      [
        "▁করেছিল",
        -8.773015022277832
      ],
      [
        "▁অফিসার",
        -8.77418327331543
      ],
      [
        "▁ছেড়ে",
        -8.774748802185059
      ],
      [
        "▁ছাত্র",
        -8.775861740112305
      ],
      [
        "▁ইতিহাস",
        -8.775964736938477
      ],
      [
        "▁নিজ",
        -8.776062965393066
      ],
      [
        "▁বাজার",
        -8.777021408081055
      ],
      [
        "▁আগস্ট",
        -8.77725887298584
      ],
      [
        "▁রায়",
        -8.778242111206055
      ],
      [
        "▁সংস্থা",
        -8.778444290161133
      ],
      [
        "▁এলাকা",
        -8.779146194458008
      ],
      [
        "▁সম্পর্ক",
        -8.779412269592285
      ],
      [
        "▁৫০",
        -8.779975891113281
      ],
      [
        "▁নামের",
        -8.780470848083496
      ],
      [
        "▁সু",
        -8.782569885253906
      ],
      [
        "▁ম্যাচ",
        -8.784603118896484
      ],
      [
        "▁করেছি",
        -8.784700393676758
      ],
      [
        "▁out",
        -8.785043716430664
      ],
      [
        "▁ইত্যাদি",
        -8.785050392150879
      ],
      [
        "▁হলেন",
        -8.785165786743164
      ],
      [
        "▁অধ্যাপক",
        -8.78760814666748
      ],
      [
        "▁বই",
        -8.788407325744629
      ],
      [
        "▁এখনও",
        -8.789003372192383
      ],
      [
        "▁সাল",
        -8.790108680725098
      ],
      [
        "▁ধারণা",
        -8.792496681213379
      ],
      [
        "িয়া",
        -8.793853759765625
      ],
      [
        "▁ভুল",
        -8.794206619262695
      ],
      [
        "▁তোমার",
        -8.794533729553223
      ],
      [
        "▁উপ",
        -8.796063423156738
      ],
      [
        "▁অভিনয়",
        -8.796363830566406
      ],
      [
        "▁থানায়",
        -8.797295570373535
      ],
      [
        "গ",
        -8.799625396728516
      ],
      [
        "▁পরিমাণ",
        -8.80002212524414
      ],
      [
        "▁our",
        -8.800034523010254
      ],
      [
        "▁গ্রেফতার",
        -8.800627708435059
      ],
      [
        "▁অবস্থিত",
        -8.804491996765137
      ],
      [
        "দা",
        -8.805152893066406
      ],
      [
        "▁some",
        -8.805840492248535
      ],
      [
        "▁up",
        -8.806331634521484
      ],
      [
        "▁সুবিধা",
        -8.806376457214355
      ],
      [
        "▁আয়োজন",
        -8.807343482971191
      ],
      [
        "▁কাজের",
        -8.80744457244873
      ],
      [
        "য়ে",
        -8.807969093322754
      ],
      [
        "▁ফল",
        -8.808204650878906
      ],
      [
        "▁বল",
        -8.808627128601074
      ],
      [
        "▁নেয়া",
        -8.809298515319824
      ],
      [
        "▁মুক্তি",
        -8.80966854095459
      ],
      [
        "▁do",
        -8.810251235961914
      ],
      [
        "▁পরিকল্পনা",
        -8.813547134399414
      ],
      [
        "▁পাবেন",
        -8.814092636108398
      ],
      [
        "▁কার্যক্রম",
        -8.815078735351562
      ],
      [
        "▁মন",
        -8.815786361694336
      ],
      [
        "▁প্রার্থী",
        -8.818768501281738
      ],
      [
        "▁ধরা",
        -8.819422721862793
      ],
      [
        "▁আসলে",
        -8.819916725158691
      ],
      [
        "▁কিভাবে",
        -8.820650100708008
      ],
      [
        "▁ম্যাচে",
        -8.82083797454834
      ],
      [
        "▁C",
        -8.823426246643066
      ],
      [
        "▁গতকাল",
        -8.823579788208008
      ],
      [
        "▁বাস",
        -8.824301719665527
      ],
      [
        "▁সভায়",
        -8.824531555175781
      ],
      [
        "▁পথে",
        -8.82462215423584
      ],
      [
        "▁there",
        -8.825721740722656
      ],
      [
        "▁টাকার",
        -8.826435089111328
      ],
      [
        "▁জনপ্রিয়",
        -8.82787036895752
      ],
      [
        "▁পারি",
        -8.829511642456055
      ],
      [
        ").",
        -8.829634666442871
      ],
      [
        "▁নিরাপত্তা",
        -8.831450462341309
      ],
      [
        "▁অর্জন",
        -8.834540367126465
      ],
      [
        "▁নির্দেশ",
        -8.834884643554688
      ],
      [
        "▁had",
        -8.835668563842773
      ],
      [
        "▁খুবই",
        -8.840755462646484
      ],
      [
        "▁বঙ্গবন্ধু",
        -8.84091567993164
      ],
      [
        "S",
        -8.844093322753906
      ],
      [
        "কি",
        -8.844992637634277
      ],
      [
        "▁নিজেকে",
        -8.845263481140137
      ],
      [
        "▁তাঁদের",
        -8.8468017578125
      ],
      [
        "▁তদন্ত",
        -8.84815788269043
      ],
      [
        "▁ভূমিকা",
        -8.84870433807373
      ],
      [
        "▁সুন্দর",
        -8.849716186523438
      ],
      [
        "▁নেয়",
        -8.850007057189941
      ],
      [
        "▁এত",
        -8.851097106933594
      ],
      [
        "▁বেড়ে",
        -8.852956771850586
      ],
      [
        "▁লোক",
        -8.853464126586914
      ],
      [
        "▁বাজারে",
        -8.853606224060059
      ],
      [
        "▁স্থানে",
        -8.855158805847168
      ],
      [
        "▁ক",
        -8.856351852416992
      ],
      [
        "▁তৃতীয়",
        -8.857970237731934
      ],
      [
        "▁সময়ের",
        -8.858478546142578
      ],
      [
        "জন",
        -8.859297752380371
      ],
      [
        "▁বেগম",
        -8.859871864318848
      ],
      [
        "▁গান",
        -8.86016845703125
      ],
      [
        "▁পথ",
        -8.861677169799805
      ],
      [
        "▁পরিস্থিতি",
        -8.863186836242676
      ],
      [
        "▁আগের",
        -8.86378002166748
      ],
      [
        "▁পরিষদের",
        -8.864713668823242
      ],
      [
        "জি",
        -8.865553855895996
      ],
      [
        "▁চা",
        -8.866292953491211
      ],
      [
        "▁মাঠে",
        -8.866459846496582
      ],
      [
        "▁use",
        -8.866605758666992
      ],
      [
        "▁এসময়",
        -8.868149757385254
      ],
      [
        "▁ভাষা",
        -8.868185043334961
      ],
      [
        "ীয়",
        -8.870848655700684
      ],
      [
        "▁বিভাগ",
        -8.871097564697266
      ],
      [
        "▁এস",
        -8.87158203125
      ],
      [
        "▁মিয়া",
        -8.872316360473633
      ],
      [
        "▁সিলেট",
        -8.872990608215332
      ],
      [
        "▁এখনো",
        -8.873272895812988
      ],
      [
        "▁পর্যায়ে",
        -8.873416900634766
      ],
      [
        "▁তালিকা",
        -8.873832702636719
      ],
      [
        "▁অনেকেই",
        -8.874423027038574
      ],
      [
        "▁ফেলে",
        -8.875932693481445
      ],
      [
        "▁আগেই",
        -8.876543045043945
      ],
      [
        "▁নিয়মিত",
        -8.876664161682129
      ],
      [
        "▁আদালত",
        -8.877230644226074
      ],
      [
        "▁সহায়তা",
        -8.877279281616211
      ],
      [
        "▁most",
        -8.879249572753906
      ],
      [
        "▁কত",
        -8.880681037902832
      ],
      [
        "▁if",
        -8.88110065460205
      ],
      [
        "▁নির্বাচিত",
        -8.881346702575684
      ],
      [
        "▁নিন",
        -8.881680488586426
      ],
      [
        "▁আয়",
        -8.881855010986328
      ],
      [
        "▁আহমদ",
        -8.882993698120117
      ],
      [
        "▁মুসলিম",
        -8.883167266845703
      ],
      [
        "▁মেনে",
        -8.884237289428711
      ],
      [
        "▁মেডিকেল",
        -8.884498596191406
      ],
      [
        "আ",
        -8.885299682617188
      ],
      [
        "▁would",
        -8.888348579406738
      ],
      [
        "রি",
        -8.888967514038086
      ],
      [
        "▁চালিয়ে",
        -8.889494895935059
      ],
      [
        "▁জানিয়ে",
        -8.891818046569824
      ],
      [
        "▁মাসের",
        -8.893409729003906
      ],
      [
        "▁সড়ক",
        -8.893564224243164
      ],
      [
        "▁খেলা",
        -8.893771171569824
      ],
      [
        "i",
        -8.894095420837402
      ],
      [
        "▁অনলাইন",
        -8.894423484802246
      ],
      [
        "▁হয়তো",
        -8.894697189331055
      ],
      [
        "▁প্রেসিডেন্ট",
        -8.894758224487305
      ],
      [
        "▁অধিকার",
        -8.894956588745117
      ],
      [
        "▁সূত্র",
        -8.895153045654297
      ],
      [
        "▁পাওয়ার",
        -8.895736694335938
      ],
      [
        "▁শহর",
        -8.898439407348633
      ],
      [
        "▁সেরা",
        -8.898565292358398
      ],
      [
        "▁such",
        -8.898929595947266
      ],
      [
        "▁সম্প্রতি",
        -8.89983081817627
      ],
      [
        "re",
        -8.900731086730957
      ],
      [
        "৪",
        -8.900967597961426
      ],
      [
        "▁সংগ্রহ",
        -8.901141166687012
      ],
      [
        "▁সুপার",
        -8.9024076461792
      ],
      [
        "▁আসছে",
        -8.902874946594238
      ],
      [
        "▁পারবে",
        -8.902918815612793
      ],
      [
        "▁গ্রাম",
        -8.903158187866211
      ],
      [
        "or",
        -8.903602600097656
      ],
      [
        "▁জীবনের",
        -8.904338836669922
      ],
      [
        "▁ফেব্রুয়ারি",
        -8.904519081115723
      ],
      [
        "▁সচিব",
        -8.906742095947266
      ],
      [
        "▁কর্তৃপক্ষ",
        -8.907451629638672
      ],
      [
        "▁নির্মাণ",
        -8.907458305358887
      ],
      [
        "▁মন্ত্রী",
        -8.907622337341309
      ],
      [
        "গুলোর",
        -8.908313751220703
      ],
      [
        "▁অতিথি",
        -8.908334732055664
      ],
      [
        "▁সাংবাদিক",
        -8.909196853637695
      ],
      [
        "▁তাতে",
        -8.910266876220703
      ],
      [
        "কার",
        -8.913390159606934
      ],
      [
        "▁২০১৮",
        -8.9136962890625
      ],
      [
        "▁দিক",
        -8.914006233215332
      ],
      [
        "▁B",
        -8.914113998413086
      ],
      [
        "▁জায়গায়",
        -8.917033195495605
      ],
      [
        "▁শেয়ার",
        -8.917960166931152
      ],
      [
        "▁আবু",
        -8.918143272399902
      ],
      [
        "▁বহু",
        -8.918593406677246
      ],
      [
        "য়া",
        -8.91914176940918
      ],
      [
        "▁গাড়ি",
        -8.92024040222168
      ],
      [
        "▁থানা",
        -8.922932624816895
      ],
      [
        "]",
        -8.924321174621582
      ],
      [
        "▁over",
        -8.924727439880371
      ],
      [
        "▁মৃত্যুর",
        -8.92486572265625
      ],
      [
        "▁বিপক্ষে",
        -8.927836418151855
      ],
      [
        "িক",
        -8.928071022033691
      ],
      [
        "▁আসতে",
        -8.92809009552002
      ],
      [
        "▁বুঝতে",
        -8.928674697875977
      ],
      [
        "▁জায়গা",
        -8.929056167602539
      ],
      [
        "▁উইকেট",
        -8.929216384887695
      ],
      [
        "▁ছড়িয়ে",
        -8.932940483093262
      ],
      [
        "▁চায়",
        -8.934743881225586
      ],
      [
        "▁what",
        -8.93503475189209
      ],
      [
        "th",
        -8.935433387756348
      ],
      [
        "▁দীর্ঘ",
        -8.935836791992188
      ],
      [
        "▁মামলার",
        -8.939810752868652
      ],
      [
        "r",
        -8.940988540649414
      ],
      [
        "▁সহজ",
        -8.941839218139648
      ],
      [
        "▁দরকার",
        -8.94454574584961
      ],
      [
        "▁কৃষি",
        -8.946160316467285
      ],
      [
        "মি",
        -8.946755409240723
      ],
      [
        "▁প্রথমে",
        -8.947104454040527
      ],
      [
        "▁সঠিক",
        -8.947173118591309
      ],
      [
        "▁how",
        -8.947216033935547
      ],
      [
        "▁হোক",
        -8.948092460632324
      ],
      [
        "▁গল্প",
        -8.949248313903809
      ],
      [
        "লো",
        -8.949429512023926
      ],
      [
        "▁চাইলে",
        -8.950122833251953
      ],
      [
        "▁তিনটি",
        -8.95051097869873
      ],
      [
        "▁ঐ",
        -8.950846672058105
      ],
      [
        "কারী",
        -8.951419830322266
      ],
      [
        "▁Leave",
        -8.952428817749023
      ],
      [
        "্য",
        -8.952591896057129
      ],
      [
        "হ",
        -8.954572677612305
      ],
      [
        "▁used",
        -8.956637382507324
      ],
      [
        "▁রাজ্য",
        -8.959394454956055
      ],
      [
        "▁রয়েছেন",
        -8.96109390258789
      ],
      [
        "▁ছিলো",
        -8.961831092834473
      ],
      [
        "▁কমিটি",
        -8.962553024291992
      ],
      [
        "▁প্রভাব",
        -8.964433670043945
      ],
      [
        "▁পণ্য",
        -8.964733123779297
      ],
      [
        "▁এমনকি",
        -8.966485023498535
      ],
      [
        "▁only",
        -8.96831226348877
      ],
      [
        "▁তাঁকে",
        -8.968623161315918
      ],
      [
        "▁কিনা",
        -8.969459533691406
      ],
      [
        "▁আই",
        -8.969711303710938
      ],
      [
        "▁জমা",
        -8.970786094665527
      ],
      [
        "▁ব্যবসা",
        -8.97089958190918
      ],
      [
        "▁গ্রামে",
        -8.971057891845703
      ],
      [
        "▁জল",
        -8.972057342529297
      ],
      [
        "▁কুমার",
        -8.972894668579102
      ],
      [
        "গুলির",
        -8.974865913391113
      ],
      [
        "▁রাখার",
        -8.975028991699219
      ],
      [
        "▁দেখুন",
        -8.975031852722168
      ],
      [
        "A",
        -8.976375579833984
      ],
      [
        "▁২১",
        -8.976603507995605
      ],
      [
        "▁অভিনেত্রী",
        -8.977006912231445
      ],
      [
        "▁রোববার",
        -8.9799165725708
      ],
      [
        "▁প্রতিদিন",
        -8.979988098144531
      ],
      [
        "▁কখনো",
        -8.980490684509277
      ],
      [
        "▁many",
        -8.983339309692383
      ],
      [
        "▁চোখ",
        -8.983902931213379
      ],
      [
        "▁পাঠানো",
        -8.983906745910645
      ],
      [
        "▁দ্য",
        -8.984048843383789
      ],
      [
        "▁শিক্ষার্থী",
        -8.98642635345459
      ],
      [
        "▁—",
        -8.986607551574707
      ],
      [
        "▁হওয়ায়",
        -8.988554000854492
      ],
      [
        "▁রোগ",
        -8.988885879516602
      ],
      [
        "▁মূলত",
        -8.990729331970215
      ],
      [
        "▁প্রবেশ",
        -8.992629051208496
      ],
      [
        "▁পরামর্শ",
        -8.993107795715332
      ],
      [
        "▁আলাদা",
        -8.993525505065918
      ],
      [
        "▁আদালতে",
        -8.99555778503418
      ],
      [
        "▁1",
        -8.996882438659668
      ],
      [
        "▁শিকার",
        -8.997050285339355
      ],
      [
        "▁পরবর্তী",
        -8.997797012329102
      ],
      [
        "▁বয়স",
        -8.997804641723633
      ],
      [
        "▁সহকারী",
        -8.997950553894043
      ],
      [
        "…",
        -8.997968673706055
      ],
      [
        "▁first",
        -9.000982284545898
      ],
      [
        "▁গবেষণা",
        -9.00124740600586
      ],
      [
        "▁ভাগ",
        -9.001947402954102
      ],
      [
        "▁স্বামী",
        -9.002053260803223
      ],
      [
        "▁নিউজ",
        -9.002946853637695
      ],
      [
        "তম",
        -9.004254341125488
      ],
      [
        "▁P",
        -9.005728721618652
      ],
      [
        "▁সিটি",
        -9.006757736206055
      ],
      [
        "▁লক্ষ",
        -9.0079345703125
      ],
      [
        "তো",
        -9.00881576538086
      ],
      [
        "▁পুরুষ",
        -9.008988380432127
      ],
      [
        "▁খারাপ",
        -9.009561538696287
      ],
      [
        "▁টেস্ট",
        -9.009910583496094
      ],
      [
        "▁বাড়ির",
        -9.010313034057615
      ],
      [
        "▁সন্তান",
        -9.01293659210205
      ],
      [
        "▁no",
        -9.013309478759766
      ],
      [
        "▁ফেসবুক",
        -9.014549255371094
      ],
      [
        "▁চিন্তা",
        -9.01469898223877
      ],
      [
        "▁হারিয়ে",
        -9.01548671722412
      ],
      [
        "▁দূর",
        -9.018017768859863
      ],
      [
        "▁like",
        -9.022995948791504
      ],
      [
        "m",
        -9.025311470031738
      ],
      [
        "সে",
        -9.025444984436035
      ],
      [
        "▁নাই",
        -9.02587890625
      ],
      [
        "o",
        -9.02613639831543
      ],
      [
        "▁অন্যদিকে",
        -9.02686595916748
      ],
      [
        "ির",
        -9.027524948120115
      ],
      [
        "▁সম্পূর্ণ",
        -9.028315544128418
      ],
      [
        "▁কিছুটা",
        -9.02965259552002
      ],
      [
        "▁গেছেন",
        -9.031063079833984
      ],
      [
        "▁প্রযুক্তি",
        -9.032498359680176
      ],
      [
        "▁খাদ্য",
        -9.032522201538086
      ],
      [
        "▁new",
        -9.0325927734375
      ],
      [
        "▁মতে",
        -9.03395652770996
      ],
      [
        "▁মাথায়",
        -9.034342765808104
      ],
      [
        "▁মৃত",
        -9.035987854003906
      ],
      [
        "পা",
        -9.03650188446045
      ],
      [
        "▁re",
        -9.036818504333496
      ],
      [
        "▁ফুটবল",
        -9.037005424499512
      ],
      [
        "▁নাকি",
        -9.039304733276367
      ],
      [
        "▁২০২০",
        -9.039344787597656
      ],
      [
        "ডি",
        -9.03991413116455
      ],
      [
        "▁পোস্ট",
        -9.03994846343994
      ],
      [
        "▁নেমে",
        -9.04013442993164
      ],
      [
        "রে",
        -9.040757179260254
      ],
      [
        "▁দুপুরে",
        -9.04106330871582
      ],
      [
        "▁খরচ",
        -9.041210174560549
      ],
      [
        "▁একাধিক",
        -9.04345703125
      ],
      [
        "▁যেকোনো",
        -9.04387664794922
      ],
      [
        "▁অফ",
        -9.044069290161133
      ],
      [
        "িত",
        -9.044095993041992
      ],
      [
        "ঁ",
        -9.045183181762695
      ],
      [
        "য়ের",
        -9.045973777770996
      ],
      [
        "▁পদে",
        -9.046257972717283
      ],
      [
        "▁২০১৯",
        -9.046852111816406
      ],
      [
        "▁গঠন",
        -9.047805786132812
      ],
      [
        "▁পরিষদ",
        -9.048405647277832
      ],
      [
        "▁ঢাকার",
        -9.04903507232666
      ],
      [
        "▁আপনাদের",
        -9.049309730529783
      ],
      [
        "▁শক্তি",
        -9.051663398742676
      ],
      [
        "▁দেয়ার",
        -9.052911758422852
      ],
      [
        "▁লাল",
        -9.054580688476562
      ],
      [
        "▁হামলা",
        -9.055551528930664
      ],
      [
        "৷",
        -9.05564308166504
      ],
      [
        "▁জীবনে",
        -9.057157516479492
      ],
      [
        "▁১৯",
        -9.057534217834473
      ],
      [
        "▁বাকি",
        -9.0579252243042
      ],
      [
        "▁রকম",
        -9.05901050567627
      ],
      [
        "▁মানে",
        -9.059720039367676
      ],
      [
        "▁পড়েছে",
        -9.060410499572754
      ],
      [
        "▁করলেন",
        -9.061727523803713
      ],
      [
        "▁জি",
        -9.06346321105957
      ],
      [
        "ুর",
        -9.063941955566406
      ],
      [
        "▁Reply",
        -9.06428050994873
      ],
      [
        "▁মাছ",
        -9.06467342376709
      ],
      [
        "▁সূত্রে",
        -9.065707206726074
      ],
      [
        "▁two",
        -9.06810188293457
      ],
      [
        "▁পড়া",
        -9.06928539276123
      ],
      [
        "▁অনুরোধ",
        -9.069446563720703
      ],
      [
        "▁সুস্থ",
        -9.070867538452148
      ],
      [
        "▁অ্যান্ড",
        -9.070971488952637
      ],
      [
        "▁একবার",
        -9.071739196777344
      ],
      [
        "▁স্বাধীনতা",
        -9.072391510009766
      ],
      [
        "▁তাঁরা",
        -9.072875022888184
      ],
      [
        "▁ক্রিকেটার",
        -9.073689460754396
      ],
      [
        "▁নিয়ম",
        -9.07423210144043
      ],
      [
        "▁পরিচয়",
        -9.074299812316896
      ],
      [
        "▁বিষয়ক",
        -9.076094627380373
      ],
      [
        "▁ম",
        -9.080219268798828
      ],
      [
        "ভ",
        -9.080937385559082
      ],
      [
        "▁নদী",
        -9.081029891967772
      ],
      [
        "▁স্বাভাবিক",
        -9.081656455993652
      ],
      [
        "▁রেকর্ড",
        -9.082639694213867
      ],
      [
        "▁শব্দ",
        -9.082791328430176
      ],
      [
        "▁প্রয়োজনীয়",
        -9.083491325378418
      ],
      [
        "▁পরীক্ষার",
        -9.08549690246582
      ],
      [
        "▁পড়তে",
        -9.086341857910156
      ],
      [
        "▁নিয়োগ",
        -9.08826732635498
      ],
      [
        "▁সরাসরি",
        -9.08860206604004
      ],
      [
        "▁সম্পন্ন",
        -9.088687896728516
      ],
      [
        "▁২২",
        -9.088871955871582
      ],
      [
        "▁ভারতে",
        -9.090208053588867
      ],
      [
        "▁আসার",
        -9.090774536132812
      ],
      [
        "▁সাধারণত",
        -9.091538429260254
      ],
      [
        "চ",
        -9.091724395751951
      ],
      [
        "▁মামলায়",
        -9.091814994812012
      ],
      [
        "▁নিচে",
        -9.092470169067385
      ],
      [
        "▁ক্লিক",
        -9.093406677246094
      ],
      [
        "▁বিদ্যালয়",
        -9.09345817565918
      ],
      [
        "▁ঘর",
        -9.093536376953123
      ],
      [
        "▁উপলক্ষে",
        -9.09518814086914
      ],
      [
        "▁সৌদি",
        -9.09523105621338
      ],
      [
        "▁ব্যাপক",
        -9.09581470489502
      ],
      [
        "▁নিয়েছে",
        -9.096395492553713
      ],
      [
        "▁মেয়র",
        -9.096597671508787
      ],
      [
        "▁প্র",
        -9.09847927093506
      ],
      [
        "▁আসবে",
        -9.099658966064451
      ],
      [
        "▁থাকায়",
        -9.101277351379396
      ],
      [
        "▁অত্যন্ত",
        -9.101346015930176
      ],
      [
        "▁E",
        -9.101624488830566
      ],
      [
        "▁শাহ",
        -9.103316307067873
      ],
      [
        "ation",
        -9.103811264038086
      ],
      [
        "▁হতো",
        -9.1038236618042
      ],
      [
        "▁ডলার",
        -9.104549407958984
      ],
      [
        "▁অফিস",
        -9.105024337768556
      ],
      [
        "▁কমে",
        -9.105618476867676
      ],
      [
        "▁খুঁজে",
        -9.105819702148438
      ],
      [
        "▁নিয়ন্ত্রণ",
        -9.10667896270752
      ],
      [
        "▁সংশ্লিষ্ট",
        -9.106698989868164
      ],
      [
        "▁পরিবেশ",
        -9.107261657714844
      ],
      [
        "ers",
        -9.109400749206545
      ],
      [
        "▁মায়ের",
        -9.1107759475708
      ],
      [
        "▁সভা",
        -9.111915588378906
      ],
      [
        "অ",
        -9.113042831420898
      ],
      [
        "▁[",
        -9.11385726928711
      ],
      [
        "▁বছরে",
        -9.115042686462402
      ],
      [
        "▁ধরণের",
        -9.11505126953125
      ],
      [
        "▁শিক্ষার্থীদের",
        -9.115190505981444
      ],
      [
        "▁পাকিস্তান",
        -9.116662979125977
      ],
      [
        "▁ইন",
        -9.116671562194824
      ],
      [
        "▁খালেদা",
        -9.116802215576172
      ],
      [
        "▁লাগে",
        -9.117189407348633
      ],
      [
        "▁কেবল",
        -9.117584228515623
      ],
      [
        "▁বিমান",
        -9.117819786071776
      ],
      [
        "▁ধীরে",
        -9.117982864379885
      ],
      [
        "৬",
        -9.118452072143556
      ],
      [
        "▁লেখক",
        -9.119640350341797
      ],
      [
        "▁অনেকে",
        -9.119742393493652
      ],
      [
        "▁নেওয়ার",
        -9.121224403381348
      ],
      [
        "▁নেতৃত্বে",
        -9.121323585510254
      ],
      [
        "▁নির্দিষ্ট",
        -9.12167263031006
      ],
      [
        "▁সেটি",
        -9.122210502624512
      ],
      [
        "২০",
        -9.124244689941406
      ],
      [
        "▁কর",
        -9.127285957336426
      ],
      [
        "▁মডেল",
        -9.127745628356934
      ],
      [
        "▁২৩",
        -9.129254341125488
      ],
      [
        "▁মালিক",
        -9.12938117980957
      ],
      [
        "▁প্রতিষ্ঠিত",
        -9.12980842590332
      ],
      [
        "▁water",
        -9.130669593811035
      ],
      [
        "▁বন্ধু",
        -9.133527755737305
      ],
      [
        "▁এদের",
        -9.134011268615724
      ],
      [
        "▁কীভাবে",
        -9.13424015045166
      ],
      [
        "▁বিচার",
        -9.136609077453612
      ],
      [
        "▁হিন্দু",
        -9.137951850891112
      ],
      [
        "▁জেনারেল",
        -9.138516426086426
      ],
      [
        "▁হা",
        -9.140260696411133
      ],
      [
        "▁স্বপ্ন",
        -9.142167091369627
      ],
      [
        "▁সাত",
        -9.143067359924316
      ],
      [
        "▁ছয়",
        -9.14421558380127
      ],
      [
        "▁any",
        -9.144302368164062
      ],
      [
        "▁উপায়",
        -9.144454002380373
      ],
      [
        "তি",
        -9.144529342651367
      ],
      [
        "▁আন্দোলন",
        -9.145345687866213
      ],
      [
        "▁মানুষকে",
        -9.146618843078612
      ],
      [
        "▁ওঠে",
        -9.148876190185549
      ],
      [
        "▁পছন্দ",
        -9.149051666259766
      ],
      [
        "▁অনুষ্ঠান",
        -9.149687767028809
      ],
      [
        "▁বিজ্ঞান",
        -9.149910926818848
      ],
      [
        "▁কঠিন",
        -9.150469779968262
      ],
      [
        "নো",
        -9.151288986206056
      ],
      [
        "▁শিল্প",
        -9.15195655822754
      ],
      [
        "▁সংগঠন",
        -9.15322971343994
      ],
      [
        "▁হাসপাতাল",
        -9.153480529785156
      ],
      [
        "▁গোল",
        -9.15396499633789
      ],
      [
        "▁সা",
        -9.154263496398926
      ],
      [
        "জা",
        -9.155470848083496
      ],
      [
        "▁আসেন",
        -9.155854225158691
      ],
      [
        "▁মাথা",
        -9.156827926635742
      ],
      [
        "▁রাজ্যের",
        -9.159226417541504
      ],
      [
        "▁years",
        -9.159760475158691
      ],
      [
        "▁well",
        -9.159865379333496
      ],
      [
        "▁বিতরণ",
        -9.160076141357422
      ],
      [
        "▁সম্ভাবনা",
        -9.160597801208496
      ],
      [
        "ছি",
        -9.16215705871582
      ],
      [
        "▁মাদক",
        -9.163004875183104
      ],
      [
        "▁পি",
        -9.16395092010498
      ],
      [
        "▁ব্যক্তিগত",
        -9.16533088684082
      ],
      [
        "▁গিয়েছে",
        -9.166321754455566
      ],
      [
        "▁২৬",
        -9.166640281677246
      ],
      [
        "মূলক",
        -9.167071342468262
      ],
      [
        "▁through",
        -9.167834281921388
      ],
      [
        "▁2",
        -9.168828010559082
      ],
      [
        "▁টা",
        -9.169201850891112
      ],
      [
        "▁?",
        -9.169288635253906
      ],
      [
        "▁জড়িত",
        -9.170541763305664
      ],
      [
        "▁বরং",
        -9.171394348144531
      ],
      [
        "▁জেনে",
        -9.17282485961914
      ],
      [
        "▁৪০",
        -9.173755645751951
      ],
      [
        "▁যুদ্ধ",
        -9.174493789672852
      ],
      [
        "▁নিজস্ব",
        -9.175304412841797
      ],
      [
        "▁পেয়েছে",
        -9.175699234008787
      ],
      [
        "▁একে",
        -9.179283142089844
      ],
      [
        "েই",
        -9.180279731750488
      ],
      [
        "▁রাজধানীর",
        -9.18230438232422
      ],
      [
        "▁should",
        -9.182570457458496
      ],
      [
        "▁কেমন",
        -9.18312931060791
      ],
      [
        "▁আবুল",
        -9.183533668518066
      ],
      [
        "▁আনা",
        -9.183697700500488
      ],
      [
        "নে",
        -9.184574127197266
      ],
      [
        "▁একমাত্র",
        -9.184983253479004
      ],
      [
        "▁মিনিট",
        -9.18513011932373
      ],
      [
        "▁জমি",
        -9.18516731262207
      ],
      [
        "▁সমাজ",
        -9.187292098999023
      ],
      [
        "▁দিবস",
        -9.188709259033203
      ],
      [
        "▁পার",
        -9.188925743103027
      ],
      [
        "▁দেবে",
        -9.191959381103516
      ],
      [
        "▁খেতে",
        -9.192270278930664
      ],
      [
        "▁চলতি",
        -9.19252109527588
      ],
      [
        "▁অন্তত",
        -9.192670822143556
      ],
      [
        "▁যিনি",
        -9.193010330200195
      ],
      [
        "▁প্রকল্প",
        -9.193285942077637
      ],
      [
        "▁খেলোয়াড়",
        -9.195180892944336
      ],
      [
        "▁উল্লেখ্য",
        -9.19562816619873
      ],
      [
        "▁প্রচার",
        -9.196590423583984
      ],
      [
        "টিতে",
        -9.198981285095217
      ],
      [
        "▁M",
        -9.199170112609863
      ],
      [
        "▁চাপ",
        -9.199706077575684
      ],
      [
        "▁গুলো",
        -9.200368881225586
      ],
      [
        "▁রক্ষা",
        -9.201770782470703
      ],
      [
        "▁make",
        -9.20198917388916
      ],
      [
        "▁মান",
        -9.202519416809082
      ],
      [
        "▁G",
        -9.20328426361084
      ],
      [
        "▁বললেন",
        -9.20567798614502
      ],
      [
        "▁D",
        -9.206528663635254
      ],
      [
        "আমি",
        -9.20674991607666
      ],
      [
        "▁উঠেছে",
        -9.20680809020996
      ],
      [
        "g",
        -9.206891059875488
      ],
      [
        "▁যুক্তরাষ্ট্রের",
        -9.207061767578123
      ],
      [
        "▁যায়নি",
        -9.207274436950684
      ],
      [
        "▁R",
        -9.207538604736328
      ],
      [
        "নের",
        -9.20812702178955
      ],
      [
        "▁3",
        -9.208488464355469
      ],
      [
        "▁রিপোর্ট",
        -9.208599090576172
      ],
      [
        "▁২৮",
        -9.210693359375
      ],
      [
        "▁পাকিস্তানের",
        -9.210935592651367
      ],
      [
        "▁থাকলেও",
        -9.21096897125244
      ],
      [
        "▁আবদুল",
        -9.21109104156494
      ],
      [
        "▁If",
        -9.21166706085205
      ],
      [
        "▁between",
        -9.214101791381836
      ],
      [
        "▁work",
        -9.214329719543455
      ],
      [
        "▁যাদের",
        -9.214616775512695
      ],
      [
        "▁আহ্বান",
        -9.2147798538208
      ],
      [
        "▁জাতির",
        -9.21624755859375
      ],
      [
        "পি",
        -9.216318130493164
      ],
      [
        "▁বিয়ের",
        -9.220866203308104
      ],
      [
        "৭",
        -9.220871925354004
      ],
      [
        "▁ব্রিটিশ",
        -9.221416473388672
      ],
      [
        "c",
        -9.221707344055176
      ],
      [
        "▁পদ্ধতি",
        -9.221709251403809
      ],
      [
        "▁F",
        -9.222424507141112
      ],
      [
        "▁চোখে",
        -9.224143028259276
      ],
      [
        "▁করতেন",
        -9.224350929260254
      ],
      [
        "▁অবশ্য",
        -9.224576950073242
      ],
      [
        "▁ডিজিটাল",
        -9.225550651550291
      ],
      [
        "▁জরুরি",
        -9.226567268371582
      ],
      [
        "▁২০২১",
        -9.228364944458008
      ],
      [
        "▁সিনিয়র",
        -9.228769302368164
      ],
      [
        "▁তেল",
        -9.228997230529783
      ],
      [
        "▁হঠাৎ",
        -9.230106353759766
      ],
      [
        "াল",
        -9.231085777282717
      ],
      [
        "▁কোম্পানি",
        -9.23111629486084
      ],
      [
        "▁কা",
        -9.231892585754396
      ],
      [
        "▁বহিঃসংযোগ",
        -9.232194900512695
      ],
      [
        "▁নির্বাচনের",
        -9.233362197875977
      ],
      [
        "▁দশমিক",
        -9.233831405639648
      ],
      [
        "▁বাসায়",
        -9.233842849731444
      ],
      [
        "▁বিদ্যুৎ",
        -9.234540939331056
      ],
      [
        "▁বলছেন",
        -9.235093116760254
      ],
      [
        "▁দলে",
        -9.235815048217772
      ],
      [
        "▁প্রচুর",
        -9.236323356628418
      ],
      [
        "▁দলীয়",
        -9.23671531677246
      ],
      [
        "▁প্রমাণ",
        -9.237162590026855
      ],
      [
        "▁কিছুই",
        -9.2382173538208
      ],
      [
        "▁could",
        -9.23854923248291
      ],
      [
        "▁পশ্চিম",
        -9.238724708557127
      ],
      [
        "▁পৃথিবীর",
        -9.238768577575684
      ],
      [
        "▁ভিত্তিতে",
        -9.23881721496582
      ],
      [
        "▁২৭",
        -9.239879608154297
      ],
      [
        "▁কোথায়",
        -9.24010181427002
      ],
      [
        "▁ব্যবহৃত",
        -9.24038314819336
      ],
      [
        "▁ওয়েবসাইট",
        -9.241530418395996
      ],
      [
        "▁কু",
        -9.242876052856444
      ],
      [
        "▁ব্যবসায়ী",
        -9.243374824523926
      ],
      [
        "▁ফুল",
        -9.244460105895996
      ],
      [
        "▁সফল",
        -9.245471000671388
      ],
      [
        "আর",
        -9.245826721191406
      ],
      [
        "▁বিশাল",
        -9.245911598205566
      ],
      [
        "▁উন্নত",
        -9.246532440185549
      ],
      [
        "▁শহরে",
        -9.248320579528809
      ],
      [
        "▁আল্লাহ",
        -9.24866008758545
      ],
      [
        "ion",
        -9.248903274536133
      ],
      [
        "পাড়া",
        -9.249156951904297
      ],
      [
        "▁দিলে",
        -9.249341011047363
      ],
      [
        "▁মন্ত্রণালয়ের",
        -9.249731063842772
      ],
      [
        "▁ছাড়াও",
        -9.250088691711426
      ],
      [
        "ic",
        -9.250618934631348
      ],
      [
        "▁ভারপ্রাপ্ত",
        -9.25205135345459
      ],
      [
        "2",
        -9.252059936523438
      ],
      [
        "▁কলেজের",
        -9.252104759216309
      ],
      [
        "▁দায়ের",
        -9.252603530883787
      ],
      [
        "▁রবিবার",
        -9.25399112701416
      ],
      [
        "▁পদক্ষেপ",
        -9.25441551208496
      ],
      [
        "▁দূরে",
        -9.254660606384276
      ],
      [
        "▁গুলি",
        -9.25582790374756
      ],
      [
        "▁প্রিয়",
        -9.25627613067627
      ],
      [
        "▁মিনিটে",
        -9.256830215454102
      ],
      [
        "▁খুলে",
        -9.257843017578123
      ],
      [
        "ছ",
        -9.258275032043455
      ],
      [
        "▁জানি",
        -9.258465766906738
      ],
      [
        "▁বলল",
        -9.259406089782717
      ],
      [
        "ভি",
        -9.26016616821289
      ],
      [
        "▁প্রস্তুতি",
        -9.261053085327148
      ],
      [
        "▁আগুন",
        -9.26150608062744
      ],
      [
        "▁আজকের",
        -9.261938095092772
      ],
      [
        "▁উদ্যোগ",
        -9.262742042541504
      ],
      [
        "ছেন",
        -9.263065338134766
      ],
      [
        "▁ভয়",
        -9.26382541656494
      ],
      [
        "▁এভাবে",
        -9.264174461364746
      ],
      [
        "▁কিলোমিটার",
        -9.264421463012695
      ],
      [
        "▁যত",
        -9.264671325683594
      ],
      [
        "▁সংক্রান্ত",
        -9.26520538330078
      ],
      [
        "▁প্রমুখ",
        -9.26573371887207
      ],
      [
        "▁কক্সবাজার",
        -9.266666412353516
      ],
      [
        "▁পড়ুন",
        -9.26723575592041
      ],
      [
        "▁help",
        -9.26768684387207
      ],
      [
        "▁নদীর",
        -9.267799377441406
      ],
      [
        "▁খেলার",
        -9.269083976745604
      ],
      [
        "▁বাহিনী",
        -9.26975154876709
      ],
      [
        "▁ভিন্ন",
        -9.271514892578123
      ],
      [
        "▁T",
        -9.271944999694824
      ],
      [
        "▁মন্ত্রণালয়",
        -9.272165298461914
      ],
      [
        "▁খাওয়া",
        -9.272247314453123
      ],
      [
        "▁আর্থিক",
        -9.272687911987305
      ],
      [
        "▁শ্রমিক",
        -9.27315902709961
      ],
      [
        "▁পরিণত",
        -9.273327827453612
      ],
      [
        "▁মূল্য",
        -9.274163246154783
      ],
      [
        "▁প্রস্তাব",
        -9.276124000549316
      ],
      [
        "▁শরীরে",
        -9.27655029296875
      ],
      [
        "▁মধ্যেই",
        -9.27675724029541
      ],
      [
        "▁পরবর্তীতে",
        -9.277853965759276
      ],
      [
        "▁বাদ",
        -9.27810764312744
      ],
      [
        "উ",
        -9.278559684753418
      ],
      [
        "▁সহযোগিতা",
        -9.278923988342283
      ],
      [
        "▁where",
        -9.279346466064451
      ],
      [
        "▁শহীদ",
        -9.280250549316406
      ],
      [
        "▁করব",
        -9.280281066894531
      ],
      [
        "হা",
        -9.281107902526855
      ],
      [
        "▁বিভাগে",
        -9.282632827758787
      ],
      [
        "▁শুধুমাত্র",
        -9.282710075378418
      ],
      [
        "▁অভিনেতা",
        -9.284584045410156
      ],
      [
        "▁১০০",
        -9.286192893981934
      ],
      [
        "▁উৎপাদন",
        -9.286243438720703
      ],
      [
        "▁রাখে",
        -9.286824226379396
      ],
      [
        "▁পিতা",
        -9.287019729614258
      ],
      [
        "▁দৈনিক",
        -9.287147521972656
      ],
      [
        "▁বেলা",
        -9.287765502929688
      ],
      [
        "▁আপনারা",
        -9.288355827331545
      ],
      [
        "▁শনাক্ত",
        -9.288488388061523
      ],
      [
        "▁কবি",
        -9.288969993591309
      ],
      [
        "▁সম্মেলনে",
        -9.289484977722168
      ],
      [
        "▁গুরুত্ব",
        -9.289578437805176
      ],
      [
        "▁রি",
        -9.289949417114258
      ],
      [
        "▁অংশগ্রহণ",
        -9.29108428955078
      ],
      [
        "▁For",
        -9.293402671813965
      ],
      [
        "ণ",
        -9.293567657470703
      ],
      [
        "▁ভেঙে",
        -9.294084548950195
      ],
      [
        "▁তুলনায়",
        -9.295700073242188
      ],
      [
        "▁পেয়েছেন",
        -9.296347618103027
      ],
      [
        "▁সক্ষম",
        -9.297269821166992
      ],
      [
        "▁প্রধানমন্ত্রীর",
        -9.298089981079102
      ],
      [
        "C",
        -9.298221588134766
      ],
      [
        "▁কামাল",
        -9.298418998718262
      ],
      [
        "b",
        -9.299572944641112
      ],
      [
        "▁জেলায়",
        -9.299761772155762
      ],
      [
        "▁কখনও",
        -9.301162719726562
      ],
      [
        "▁তারিখ",
        -9.301305770874023
      ],
      [
        "▁বাহিনীর",
        -9.302679061889648
      ],
      [
        "▁পাবে",
        -9.3027982711792
      ],
      [
        "p",
        -9.302834510803224
      ],
      [
        "▁de",
        -9.30290985107422
      ],
      [
        "ড়",
        -9.303791999816896
      ],
      [
        "▁লক্ষ্যে",
        -9.304097175598145
      ],
      [
        "▁পৌঁছে",
        -9.305641174316406
      ],
      [
        "গণ",
        -9.30569839477539
      ],
      [
        "▁অনুমতি",
        -9.30588150024414
      ],
      [
        "▁দাঁড়িয়ে",
        -9.306197166442873
      ],
      [
        "▁গভীর",
        -9.307114601135254
      ],
      [
        "▁বলছে",
        -9.308650016784668
      ],
      [
        "▁বিজয়ী",
        -9.310077667236328
      ],
      [
        "▁প্রশাসন",
        -9.31099796295166
      ],
      [
        "গুলোতে",
        -9.311153411865234
      ],
      [
        "_",
        -9.31162452697754
      ],
      [
        "▁সত্য",
        -9.311637878417969
      ],
      [
        "▁আধুনিক",
        -9.313344955444336
      ],
      [
        "▁We",
        -9.314433097839355
      ],
      [
        "▁রাজা",
        -9.316069602966309
      ],
      [
        "▁চিকিৎসক",
        -9.316449165344238
      ],
      [
        "▁বিশ্ববিদ্যালয়ে",
        -9.316659927368164
      ],
      [
        "▁দিচ্ছে",
        -9.317103385925291
      ],
      [
        "▁ঘুরে",
        -9.317740440368652
      ],
      [
        "▁ক্ষতি",
        -9.319260597229004
      ],
      [
        "▁very",
        -9.319958686828612
      ],
      [
        "এই",
        -9.320008277893066
      ],
      [
        "▁কেটে",
        -9.321966171264648
      ],
      [
        "▁২০১৭",
        -9.322254180908203
      ],
      [
        "▁ঢাকায়",
        -9.323006629943848
      ],
      [
        "▁জনগণের",
        -9.323538780212402
      ],
      [
        "▁বিরোধী",
        -9.323942184448242
      ],
      [
        "▁ইসলামের",
        -9.324954986572266
      ],
      [
        "▁কর্মী",
        -9.325450897216797
      ],
      [
        "▁উদ্বোধন",
        -9.325506210327148
      ],
      [
        "▁জারি",
        -9.327034950256348
      ],
      [
        "▁ভাষায়",
        -9.32807159423828
      ],
      [
        "খ",
        -9.329072952270508
      ],
      [
        "▁সামরিক",
        -9.329120635986328
      ],
      [
        "▁কমিশন",
        -9.329854011535645
      ],
      [
        "▁যেসব",
        -9.329858779907228
      ],
      [
        "▁পয়েন্ট",
        -9.331416130065918
      ],
      [
        "▁সাংবাদিকদের",
        -9.33168125152588
      ],
      [
        "▁কারো",
        -9.332911491394045
      ],
      [
        "তেই",
        -9.333439826965332
      ],
      [
        "▁because",
        -9.333666801452637
      ],
      [
        "▁আরব",
        -9.334529876708984
      ],
      [
        "▁সভাপতিত্বে",
        -9.336915016174316
      ],
      [
        "▁after",
        -9.337701797485352
      ],
      [
        "▁মাহমুদ",
        -9.339093208312988
      ],
      [
        "▁গ্রেপ্তার",
        -9.340373992919922
      ],
      [
        "▁গ্রুপ",
        -9.34091854095459
      ],
      [
        "▁যুগ্ম",
        -9.34186840057373
      ],
      [
        "▁দেশটির",
        -9.343473434448242
      ],
      [
        "▁He",
        -9.345476150512695
      ],
      [
        "▁চাকরি",
        -9.346929550170898
      ],
      [
        "▁18",
        -9.34698486328125
      ],
      [
        "▁way",
        -9.347023963928224
      ],
      [
        "▁কাদের",
        -9.347738265991213
      ],
      [
        "▁ওর",
        -9.348173141479492
      ],
      [
        "▁উদ্দেশ্যে",
        -9.34819221496582
      ],
      [
        "▁অর্থনৈতিক",
        -9.349581718444824
      ],
      [
        "▁অল্প",
        -9.35051441192627
      ],
      [
        "৮",
        -9.35054874420166
      ],
      [
        "▁তেমন",
        -9.35080623626709
      ],
      [
        "▁রক্ত",
        -9.35210132598877
      ],
      [
        "▁শরীরের",
        -9.352132797241213
      ],
      [
        "▁লাশ",
        -9.35288429260254
      ],
      [
        "▁বলেও",
        -9.353276252746582
      ],
      [
        "▁সংগঠনের",
        -9.353401184082031
      ],
      [
        "▁কলকাতা",
        -9.35342025756836
      ],
      [
        "▁বেসরকারি",
        -9.35595703125
      ],
      [
        "▁বাধা",
        -9.356176376342772
      ],
      [
        "▁অথচ",
        -9.356362342834473
      ],
      [
        "▁হাসপাতালের",
        -9.356976509094238
      ],
      [
        "▁ফলাফল",
        -9.357536315917969
      ],
      [
        "▁২৯",
        -9.358019828796388
      ],
      [
        "বো",
        -9.35837745666504
      ],
      [
        "▁পরিষ্কার",
        -9.35845947265625
      ],
      [
        "▁need",
        -9.359070777893066
      ],
      [
        "▁অধিনায়ক",
        -9.359071731567385
      ],
      [
        "▁শীর্ষ",
        -9.359919548034668
      ],
      [
        "▁প্রতিবেদন",
        -9.360207557678224
      ],
      [
        "▁ক্লাব",
        -9.361018180847168
      ],
      [
        "▁নং",
        -9.36126708984375
      ],
      [
        "▁উপরে",
        -9.361531257629396
      ],
      [
        "▁then",
        -9.361702919006348
      ],
      [
        "▁কর্তৃক",
        -9.362627029418944
      ],
      [
        "▁ধন্যবাদ",
        -9.363205909729004
      ],
      [
        "l",
        -9.363662719726562
      ],
      [
        "▁মসজিদ",
        -9.365472793579102
      ],
      [
        "▁নির্দেশনা",
        -9.365544319152832
      ],
      [
        "টার",
        -9.365657806396484
      ],
      [
        "▁কর্মসূচি",
        -9.367671966552734
      ],
      [
        "on",
        -9.367704391479492
      ],
      [
        "▁সমাধান",
        -9.36812973022461
      ],
      [
        "▁কবির",
        -9.368159294128418
      ],
      [
        "D",
        -9.36905002593994
      ],
      [
        "▁পরিচালিত",
        -9.369495391845703
      ],
      [
        "▁সরবরাহ",
        -9.369519233703612
      ],
      [
        "▁প্রক্রিয়া",
        -9.372773170471191
      ],
      [
        "▁চলেছে",
        -9.37277603149414
      ],
      [
        "▁তাদেরকে",
        -9.373607635498049
      ],
      [
        "১৮",
        -9.37368869781494
      ],
      [
        "▁রানের",
        -9.374005317687988
      ],
      [
        "▁দেব",
        -9.374126434326172
      ],
      [
        "▁ব্যাংকের",
        -9.375162124633787
      ],
      [
        "▁অনুসারে",
        -9.375894546508787
      ],
      [
        "▁বার্তা",
        -9.376211166381836
      ],
      [
        "▁ছবির",
        -9.376248359680176
      ],
      [
        "▁শক্তিশালী",
        -9.37630558013916
      ],
      [
        "▁রহমানের",
        -9.376315116882324
      ],
      [
        "▁শারীরিক",
        -9.376367568969728
      ],
      [
        "▁সবাইকে",
        -9.376529693603516
      ],
      [
        "▁চন্দ্র",
        -9.376864433288574
      ],
      [
        "▁ধর্মীয়",
        -9.377842903137209
      ],
      [
        "▁টিকা",
        -9.378543853759766
      ],
      [
        "▁জ্ঞান",
        -9.378782272338867
      ],
      [
        "://",
        -9.378867149353027
      ],
      [
        "▁কার্যকর",
        -9.379545211791992
      ],
      [
        "▁আনন্দ",
        -9.379566192626951
      ],
      [
        "▁পদ",
        -9.37986660003662
      ],
      [
        "▁গাছ",
        -9.380785942077637
      ],
      [
        "▁her",
        -9.381118774414062
      ],
      [
        "▁রাস্তা",
        -9.381118774414062
      ],
      [
        "▁শুভ",
        -9.381311416625977
      ],
      [
        "▁সদস্যরা",
        -9.382497787475586
      ],
      [
        "▁অঞ্চলে",
        -9.383275985717772
      ],
      [
        "▁মানসিক",
        -9.383686065673828
      ],
      [
        "▁কোথাও",
        -9.383939743041992
      ],
      [
        "▁চুক্তি",
        -9.384075164794922
      ],
      [
        "▁স্থাপন",
        -9.384523391723633
      ],
      [
        "▁রাষ্ট্র",
        -9.384880065917969
      ],
      [
        "কো",
        -9.385722160339355
      ],
      [
        "▁খোলা",
        -9.386015892028809
      ],
      [
        "▁কালো",
        -9.387147903442385
      ],
      [
        "k",
        -9.38728141784668
      ],
      [
        "▁সংক্রমণ",
        -9.38729190826416
      ],
      [
        "▁উ",
        -9.388379096984863
      ],
      [
        "▁শুনে",
        -9.388607025146484
      ],
      [
        "▁world",
        -9.38939094543457
      ],
      [
        "হীন",
        -9.389777183532717
      ],
      [
        "▁কেজি",
        -9.390546798706056
      ],
      [
        "▁অতি",
        -9.390769004821776
      ],
      [
        "▁even",
        -9.391183853149414
      ],
      [
        "▁নিয়েছেন",
        -9.392477989196776
      ],
      [
        "১০",
        -9.392915725708008
      ],
      [
        "▁প্রাক্তন",
        -9.39387035369873
      ],
      [
        "us",
        -9.394014358520508
      ],
      [
        "▁#",
        -9.394131660461426
      ],
      [
        "দি",
        -9.395565032958984
      ],
      [
        "▁পৌর",
        -9.398774147033691
      ],
      [
        "▁system",
        -9.400333404541016
      ],
      [
        "able",
        -9.401047706604004
      ],
      [
        "▁সাদা",
        -9.40121364593506
      ],
      [
        "এম",
        -9.401500701904297
      ],
      [
        "▁কার্ড",
        -9.402918815612791
      ],
      [
        "▁অস্ত্র",
        -9.404041290283203
      ],
      [
        "▁সংস্থার",
        -9.404058456420898
      ],
      [
        "▁অব্যাহত",
        -9.404461860656738
      ],
      [
        "▁দিল",
        -9.405142784118652
      ],
      [
        "সের",
        -9.405317306518556
      ],
      [
        "▁those",
        -9.405792236328123
      ],
      [
        "▁করোনার",
        -9.405929565429688
      ],
      [
        "▁বাঙালি",
        -9.40605926513672
      ],
      [
        "৩০",
        -9.406238555908203
      ],
      [
        "▁রে",
        -9.406598091125488
      ],
      [
        "০",
        -9.407282829284668
      ],
      [
        "▁মুক্তিযোদ্ধা",
        -9.407387733459473
      ],
      [
        ".”",
        -9.407525062561035
      ],
      [
        "▁ভাইরাস",
        -9.409098625183104
      ],
      [
        "▁করেই",
        -9.409708023071287
      ],
      [
        "▁কমিশনার",
        -9.409712791442873
      ],
      [
        "▁চাহিদা",
        -9.410374641418455
      ],
      [
        "▁খেয়ে",
        -9.410392761230469
      ],
      [
        "▁কম্পিউটার",
        -9.41102409362793
      ],
      [
        "▁লোকজন",
        -9.411057472229004
      ],
      [
        "▁বিশিষ্ট",
        -9.411262512207031
      ],
      [
        "▁নামক",
        -9.411672592163086
      ],
      [
        "▁5",
        -9.4116792678833
      ],
      [
        "▁উপজেলায়",
        -9.41175365447998
      ],
      [
        "▁দেখার",
        -9.412394523620604
      ],
      [
        "▁ঘণ্টা",
        -9.412884712219238
      ],
      [
        "▁কষ্ট",
        -9.41355323791504
      ],
      [
        "▁ফি",
        -9.413678169250488
      ],
      [
        "▁information",
        -9.415287017822266
      ],
      [
        "▁৩১",
        -9.41568660736084
      ],
      [
        "B",
        -9.416376113891602
      ],
      [
        "থ",
        -9.418307304382324
      ],
      [
        "▁যেহেতু",
        -9.418582916259766
      ],
      [
        "▁life",
        -9.419082641601562
      ],
      [
        "▁নিজে",
        -9.419119834899902
      ],
      [
        "▁বিস্তারিত",
        -9.419408798217772
      ],
      [
        "▁ঘটেছে",
        -9.420731544494627
      ],
      [
        "▁ব্যক্তির",
        -9.421446800231934
      ],
      [
        "▁২০১৬",
        -9.42185401916504
      ],
      [
        "▁children",
        -9.42198085784912
      ],
      [
        "▁তালিকায়",
        -9.423404693603516
      ],
      [
        "▁বিজেপি",
        -9.42398452758789
      ],
      [
        "▁পরিবহন",
        -9.42557430267334
      ],
      [
        "▁প্রতিষ্ঠানের",
        -9.425658226013184
      ],
      [
        "▁just",
        -9.425860404968262
      ],
      [
        "▁different",
        -9.42606258392334
      ],
      [
        "▁বোর্ড",
        -9.426523208618164
      ],
      [
        "▁বিকেলে",
        -9.426618576049805
      ],
      [
        "▁বাধ্য",
        -9.427111625671388
      ],
      [
        "▁অভিজ্ঞতা",
        -9.42741584777832
      ],
      [
        "▁প্রশ্নের",
        -9.427847862243652
      ],
      [
        "▁মহানগর",
        -9.42800998687744
      ],
      [
        "▁মাওলানা",
        -9.428790092468262
      ],
      [
        "▁রাজধানী",
        -9.43074893951416
      ],
      [
        "▁বেরিয়ে",
        -9.431957244873049
      ],
      [
        "▁দিলেন",
        -9.432024955749512
      ],
      [
        "▁H",
        -9.432124137878418
      ],
      [
        "▁said",
        -9.434732437133787
      ],
      [
        "an",
        -9.434757232666016
      ],
      [
        "▁কয়েকজন",
        -9.434823036193848
      ],
      [
        "▁গরম",
        -9.435063362121582
      ],
      [
        "▁খেলে",
        -9.435908317565918
      ],
      [
        "▁K",
        -9.436686515808104
      ],
      [
        "▁আক্তার",
        -9.437177658081056
      ],
      [
        "মান",
        -9.437240600585938
      ],
      [
        "▁As",
        -9.43768310546875
      ],
      [
        "▁You",
        -9.437689781188965
      ],
      [
        "▁মুক্ত",
        -9.437761306762695
      ],
      [
        "▁বৈঠকে",
        -9.439069747924805
      ],
      [
        "▁প্রাণ",
        -9.439308166503906
      ],
      [
        "▁সমর্থন",
        -9.439666748046877
      ],
      [
        "E",
        -9.440302848815918
      ],
      [
        "▁বৈঠক",
        -9.440834999084473
      ],
      [
        "▁এন",
        -9.441028594970703
      ],
      [
        "G",
        -9.441598892211914
      ],
      [
        "গা",
        -9.442238807678224
      ],
      [
        "▁আলো",
        -9.44241428375244
      ],
      [
        "▁4",
        -9.442662239074709
      ],
      [
        "▁রূপ",
        -9.44362449645996
      ],
      [
        "▁হ",
        -9.44408130645752
      ],
      [
        "▁ওষুধ",
        -9.44430923461914
      ],
      [
        "▁প্রস্তুত",
        -9.44463062286377
      ],
      [
        "▁আওতায়",
        -9.445096015930176
      ],
      [
        "▁দুপুর",
        -9.445107460021973
      ],
      [
        "▁পোশাক",
        -9.445171356201172
      ],
      [
        "▁সর্বশেষ",
        -9.44629192352295
      ],
      [
        "▁সিনেমা",
        -9.446859359741213
      ],
      [
        "▁They",
        -9.44718074798584
      ],
      [
        "▁শান্তি",
        -9.448644638061523
      ],
      [
        "লাম",
        -9.449304580688477
      ],
      [
        "f",
        -9.44963836669922
      ],
      [
        "▁বাংলার",
        -9.4506254196167
      ],
      [
        "▁চুল",
        -9.452129364013672
      ],
      [
        "▁ঘরের",
        -9.452908515930176
      ],
      [
        "▁নাগরিক",
        -9.454590797424316
      ],
      [
        "▁একদিন",
        -9.456449508666992
      ],
      [
        "▁each",
        -9.456635475158691
      ],
      [
        "০০০",
        -9.456795692443848
      ],
      [
        "▁পুত্র",
        -9.457091331481934
      ],
      [
        "▁important",
        -9.458090782165527
      ],
      [
        "▁being",
        -9.458306312561035
      ],
      [
        "▁যাই",
        -9.459510803222656
      ],
      [
        "▁মাধ্যমিক",
        -9.460333824157717
      ],
      [
        "▁শরীর",
        -9.4612455368042
      ],
      [
        "▁ওসি",
        -9.462926864624023
      ],
      [
        "▁তরুণ",
        -9.463985443115234
      ],
      [
        "▁পার্টির",
        -9.46518898010254
      ],
      [
        "▁নিরাপদ",
        -9.466075897216797
      ],
      [
        "▁পারেনি",
        -9.466684341430664
      ],
      [
        "▁পড়ার",
        -9.466909408569336
      ],
      [
        "▁বয়সী",
        -9.467143058776855
      ],
      [
        "▁স্টেশন",
        -9.468060493469238
      ],
      [
        "▁ইউপি",
        -9.469143867492676
      ],
      [
        "▁এল",
        -9.46949863433838
      ],
      [
        "▁জনকে",
        -9.470918655395508
      ],
      [
        "▁দাস",
        -9.471060752868652
      ],
      [
        "▁প্রশিক্ষণ",
        -9.471378326416016
      ],
      [
        "▁রানে",
        -9.471784591674805
      ],
      [
        "▁উদ্দেশ্য",
        -9.472650527954102
      ],
      [
        "▁মু",
        -9.473115921020508
      ],
      [
        "▁অনলাইনে",
        -9.474828720092772
      ],
      [
        "▁much",
        -9.475497245788574
      ],
      [
        "▁দোকান",
        -9.476189613342283
      ],
      [
        "▁তে",
        -9.476224899291992
      ],
      [
        "▁অপেক্ষা",
        -9.476974487304688
      ],
      [
        "▁ছাত্রলীগের",
        -9.477021217346191
      ],
      [
        "▁শত",
        -9.47778034210205
      ],
      [
        "▁N",
        -9.47889804840088
      ],
      [
        "▁get",
        -9.47902774810791
      ],
      [
        "▁অভিযোগে",
        -9.479167938232422
      ],
      [
        "▁ঋণ",
        -9.479691505432127
      ],
      [
        "▁দীর্ঘদিন",
        -9.480514526367188
      ],
      [
        "▁10",
        -9.481514930725098
      ],
      [
        "▁un",
        -9.48221492767334
      ],
      [
        "▁উদ্যোগে",
        -9.482416152954102
      ],
      [
        "ছিল",
        -9.483074188232422
      ],
      [
        "▁high",
        -9.483380317687988
      ],
      [
        "▁রোগী",
        -9.483612060546877
      ],
      [
        "▁কাউকে",
        -9.483846664428713
      ],
      [
        "▁অঞ্চল",
        -9.483932495117188
      ],
      [
        "▁নষ্ট",
        -9.484573364257812
      ],
      [
        "▁পবিত্র",
        -9.484861373901367
      ],
      [
        "▁হামলার",
        -9.48487663269043
      ],
      [
        "▁জন্যে",
        -9.485268592834473
      ],
      [
        "▁চূড়ান্ত",
        -9.486851692199709
      ],
      [
        "দিন",
        -9.487191200256348
      ],
      [
        "▁রাজশাহী",
        -9.487404823303224
      ],
      [
        "▁ঘুম",
        -9.48744010925293
      ],
      [
        "▁ভাড়া",
        -9.489217758178713
      ],
      [
        "▁মিলে",
        -9.489583969116213
      ],
      [
        "▁এমপি",
        -9.490851402282717
      ],
      [
        "▁যুক্তরাষ্ট্র",
        -9.490912437438965
      ],
      [
        "মে",
        -9.491107940673828
      ],
      [
        "কৃত",
        -9.491278648376465
      ],
      [
        "দার",
        -9.492260932922363
      ],
      [
        "▁৬০",
        -9.493778228759766
      ],
      [
        "▁ডাউনলোড",
        -9.494522094726562
      ],
      [
        "▁স্থায়ী",
        -9.495065689086914
      ],
      [
        "▁পরীক্ষায়",
        -9.49530792236328
      ],
      [
        "▁প্রতিষ্ঠা",
        -9.495333671569824
      ],
      [
        "▁আয়োজিত",
        -9.495391845703123
      ],
      [
        "▁নারীর",
        -9.49591064453125
      ],
      [
        "মো",
        -9.4962739944458
      ],
      [
        "৯",
        -9.497602462768556
      ],
      [
        "▁প্রকল্পের",
        -9.497678756713867
      ],
      [
        "▁যৌন",
        -9.497808456420898
      ],
      [
        "▁বাবার",
        -9.497990608215332
      ],
      [
        "▁তৃণমূল",
        -9.49838161468506
      ],
      [
        "▁চলবে",
        -9.499503135681152
      ],
      [
        "▁এদিন",
        -9.50125217437744
      ],
      [
        "▁মি",
        -9.50156021118164
      ],
      [
        "▁সৈয়দ",
        -9.502768516540527
      ],
      [
        "▁কোভিড",
        -9.50286865234375
      ],
      [
        "▁ডাক",
        -9.503094673156738
      ],
      [
        "▁বিদ্যালয়ের",
        -9.503108024597168
      ],
      [
        "▁হাসিনার",
        -9.503620147705078
      ],
      [
        "▁সেখান",
        -9.503718376159668
      ],
      [
        "▁রাজ",
        -9.503859519958496
      ],
      [
        "▁উক্ত",
        -9.503864288330078
      ],
      [
        "▁প্রতিরোধ",
        -9.504241943359377
      ],
      [
        "▁দখল",
        -9.505166053771973
      ],
      [
        "▁সাংস্কৃতিক",
        -9.506361961364746
      ],
      [
        "▁সদস্যদের",
        -9.507562637329102
      ],
      [
        "▁পূর্বে",
        -9.507662773132324
      ],
      [
        "▁চীনের",
        -9.507726669311523
      ],
      [
        "▁সার্ভিস",
        -9.508207321166992
      ],
      [
        "▁found",
        -9.508444786071776
      ],
      [
        "▁পালিয়ে",
        -9.508944511413574
      ],
      [
        "▁অন্তর্ভুক্ত",
        -9.509222030639648
      ],
      [
        "▁চলাচল",
        -9.510039329528809
      ],
      [
        "▁during",
        -9.510327339172363
      ],
      [
        "টিকে",
        -9.510762214660645
      ],
      [
        "ity",
        -9.511038780212402
      ],
      [
        "▁বে",
        -9.511992454528809
      ],
      [
        "▁ইন্টারনেট",
        -9.512133598327637
      ],
      [
        "▁স্বীকার",
        -9.513550758361816
      ],
      [
        "▁আইনের",
        -9.514317512512209
      ],
      [
        "▁গঠিত",
        -9.514352798461914
      ],
      [
        "▁students",
        -9.514487266540527
      ],
      [
        "▁দিয়েছিলেন",
        -9.514862060546877
      ],
      [
        "▁ব্যয়",
        -9.514906883239746
      ],
      [
        "▁সমাজের",
        -9.515088081359863
      ],
      [
        "▁কল",
        -9.515146255493164
      ],
      [
        "গত",
        -9.515634536743164
      ],
      [
        "▁টিম",
        -9.516005516052246
      ],
      [
        "▁অঞ্চলের",
        -9.516615867614746
      ],
      [
        "to",
        -9.51662540435791
      ],
      [
        "▁হাই",
        -9.517467498779297
      ],
      [
        "▁বেশিরভাগ",
        -9.51835823059082
      ],
      [
        "▁করায়",
        -9.518555641174316
      ],
      [
        "▁বেড়েছে",
        -9.518821716308594
      ],
      [
        "▁L",
        -9.519160270690918
      ],
      [
        "▁বাতিল",
        -9.520373344421388
      ],
      [
        "▁মানব",
        -9.521061897277832
      ],
      [
        "▁ছবিতে",
        -9.521114349365234
      ],
      [
        "▁প্রশাসক",
        -9.521503448486328
      ],
      [
        "▁বীর",
        -9.522347450256348
      ],
      [
        "▁জোর",
        -9.522405624389648
      ],
      [
        "▁To",
        -9.522889137268066
      ],
      [
        "▁data",
        -9.523115158081056
      ],
      [
        "▁আইনজীবী",
        -9.523385047912598
      ],
      [
        "1",
        -9.523889541625977
      ],
      [
        "▁health",
        -9.524280548095703
      ],
      [
        "▁আল্লাহর",
        -9.52428150177002
      ],
      [
        "▁যাবেন",
        -9.524852752685549
      ],
      [
        "▁নির্ধারণ",
        -9.525273323059082
      ],
      [
        "▁উৎসব",
        -9.52570915222168
      ],
      [
        "ীর",
        -9.526286125183104
      ],
      [
        "▁এনে",
        -9.526777267456056
      ],
      [
        "▁কো",
        -9.527054786682127
      ],
      [
        "▁২০১৪",
        -9.527216911315918
      ],
      [
        "▁মহা",
        -9.52772045135498
      ],
      [
        "▁ইংরেজি",
        -9.52873420715332
      ],
      [
        "টাই",
        -9.528955459594728
      ],
      [
        "▁অ্যা",
        -9.530816078186035
      ],
      [
        "▁দেখি",
        -9.531923294067385
      ],
      [
        "▁আঘাত",
        -9.532235145568848
      ],
      [
        "রো",
        -9.53232765197754
      ],
      [
        "▁ওয়েব",
        -9.532509803771973
      ],
      [
        "▁নমুনা",
        -9.532744407653809
      ],
      [
        "x",
        -9.533020973205566
      ],
      [
        "▁শিশুদের",
        -9.53303337097168
      ],
      [
        "▁২০১৫",
        -9.533550262451172
      ],
      [
        "▁করল",
        -9.533753395080566
      ],
      [
        "▁সম্পদ",
        -9.533949851989746
      ],
      [
        "▁বাড়িয়ে",
        -9.534300804138184
      ],
      [
        "▁হত্যার",
        -9.534300804138184
      ],
      [
        "▁চিত্র",
        -9.53453540802002
      ],
      [
        "▁এগুলো",
        -9.534761428833008
      ],
      [
        "▁ইউ",
        -9.53515625
      ],
      [
        "▁বিকল্প",
        -9.53710651397705
      ],
      [
        "▁করলেও",
        -9.537654876708984
      ],
      [
        "▁মুহাম্মদ",
        -9.53868293762207
      ],
      [
        "h",
        -9.539581298828123
      ],
      [
        "▁ডিগ্রি",
        -9.53958511352539
      ],
      [
        "▁us",
        -9.5400972366333
      ],
      [
        "▁রাষ্ট্রপতি",
        -9.540417671203612
      ],
      [
        "▁অপরাধ",
        -9.541451454162598
      ],
      [
        "▁রোহিঙ্গা",
        -9.542108535766602
      ],
      [
        "▁পেছনে",
        -9.542479515075684
      ],
      [
        "▁অবৈধ",
        -9.542673110961914
      ],
      [
        "▁শতাব্দীর",
        -9.543067932128906
      ],
      [
        "ভা",
        -9.543172836303713
      ],
      [
        "▁নিউ",
        -9.54347801208496
      ],
      [
        "▁করবো",
        -9.54436206817627
      ],
      [
        "▁But",
        -9.544568061828612
      ],
      [
        "▁জুড়ে",
        -9.545125961303713
      ],
      [
        "▁মিডিয়া",
        -9.54592514038086
      ],
      [
        "▁U",
        -9.546625137329102
      ],
      [
        "▁সাংগঠনিক",
        -9.546716690063477
      ],
      [
        "▁রাস্তায়",
        -9.546850204467772
      ],
      [
        "শা",
        -9.548327445983888
      ],
      [
        "▁কাল",
        -9.548466682434082
      ],
      [
        "▁যথেষ্ট",
        -9.548724174499512
      ],
      [
        "▁উভয়",
        -9.54889965057373
      ],
      [
        "▁আসন",
        -9.549166679382324
      ],
      [
        "১২",
        -9.549323081970217
      ],
      [
        "ইন",
        -9.549559593200684
      ],
      [
        "▁same",
        -9.549566268920898
      ],
      [
        "▁আট",
        -9.549911499023438
      ],
      [
        "▁আরেকটি",
        -9.550237655639648
      ],
      [
        "▁দোয়া",
        -9.550531387329102
      ],
      [
        "▁আদায়",
        -9.550551414489746
      ],
      [
        "ড়া",
        -9.5507173538208
      ],
      [
        "▁ইসলামী",
        -9.551155090332031
      ],
      [
        "▁প্রতিবাদ",
        -9.552071571350098
      ],
      [
        "▁J",
        -9.552400588989258
      ],
      [
        "▁জিয়া",
        -9.553696632385254
      ],
      [
        "▁বর্ণনা",
        -9.554228782653809
      ],
      [
        "▁লা",
        -9.554719924926758
      ],
      [
        "▁বিল",
        -9.555448532104492
      ],
      [
        "▁টিভি",
        -9.555950164794922
      ],
      [
        "▁ভাষার",
        -9.555963516235352
      ],
      [
        "▁অধীনে",
        -9.556076049804688
      ],
      [
        "ওয়া",
        -9.55731964111328
      ],
      [
        "▁made",
        -9.558310508728027
      ],
      [
        "▁প",
        -9.55983066558838
      ],
      [
        "▁বিখ্যাত",
        -9.559839248657228
      ],
      [
        "▁*",
        -9.561360359191896
      ],
      [
        "গো",
        -9.562365531921388
      ],
      [
        "▁ঘণ্টায়",
        -9.562929153442385
      ],
      [
        "▁পড়েন",
        -9.563715934753418
      ],
      [
        "▁তীব্র",
        -9.564278602600098
      ],
      [
        "▁কঠোর",
        -9.56459903717041
      ],
      [
        "▁বয়সে",
        -9.565624237060549
      ],
      [
        "▁মনোনয়ন",
        -9.56586742401123
      ],
      [
        "▁মহান",
        -9.566288948059082
      ],
      [
        "▁গুগল",
        -9.566478729248049
      ],
      [
        "▁ধান",
        -9.56674861907959
      ],
      [
        "▁উপাদান",
        -9.568339347839355
      ],
      [
        "▁part",
        -9.56905746459961
      ],
      [
        "স্",
        -9.569750785827637
      ],
      [
        "▁নির্ধারিত",
        -9.57001781463623
      ],
      [
        "P",
        -9.570159912109377
      ],
      [
        "▁There",
        -9.570235252380373
      ],
      [
        "▁উল্লেখযোগ্য",
        -9.5704345703125
      ],
      [
        "▁জানেন",
        -9.570464134216309
      ],
      [
        "▁নিজেই",
        -9.570477485656738
      ],
      [
        "▁চাল",
        -9.570584297180176
      ],
      [
        "▁প্রশাসনের",
        -9.570928573608398
      ],
      [
        "...",
        -9.571382522583008
      ],
      [
        "▁সপ্তাহে",
        -9.571946144104004
      ],
      [
        "▁see",
        -9.571955680847168
      ],
      [
        "▁প্রতিবেদনে",
        -9.573484420776367
      ],
      [
        "▁বাংলাদেশি",
        -9.57495403289795
      ],
      [
        "▁তুলতে",
        -9.575037002563477
      ],
      [
        "▁অপর",
        -9.575292587280272
      ],
      [
        "▁/",
        -9.575495719909668
      ],
      [
        "্স",
        -9.576189041137695
      ],
      [
        "▁লড়াই",
        -9.576446533203123
      ],
      [
        "▁চরিত্রে",
        -9.577460289001465
      ],
      [
        "▁কাজী",
        -9.577969551086426
      ],
      [
        "▁আদালতের",
        -9.578363418579102
      ],
      [
        "▁পূর্ণ",
        -9.578630447387695
      ],
      [
        "▁সেগুলো",
        -9.579485893249512
      ],
      [
        "▁সহজেই",
        -9.579649925231934
      ],
      [
        "▁সম্মেলন",
        -9.579710960388184
      ],
      [
        "▁মিলিয়ে",
        -9.579805374145508
      ],
      [
        "▁টু",
        -9.580499649047852
      ],
      [
        "▁সমস্যার",
        -9.580531120300291
      ],
      [
        "▁ডাক্তার",
        -9.58116054534912
      ],
      [
        "▁কার",
        -9.582352638244627
      ],
      [
        "▁গোটা",
        -9.584153175354004
      ],
      [
        "▁বলেছিলেন",
        -9.584413528442385
      ],
      [
        "▁আরেক",
        -9.584922790527344
      ],
      [
        "▁থাকবেন",
        -9.585970878601074
      ],
      [
        "▁যাচ্ছেন",
        -9.586743354797363
      ],
      [
        "▁এরকম",
        -9.586832046508787
      ],
      [
        "▁both",
        -9.586915016174316
      ],
      [
        "১৫",
        -9.587430000305176
      ],
      [
        "ায়",
        -9.587608337402344
      ],
      [
        "▁খেলতে",
        -9.58773422241211
      ],
      [
        "▁সেনা",
        -9.587857246398926
      ],
      [
        "▁প্রেস",
        -9.588630676269531
      ],
      [
        "▁সোশ্যাল",
        -9.589086532592772
      ],
      [
        "▁তোলা",
        -9.589099884033203
      ],
      [
        "▁তারিখে",
        -9.589287757873535
      ],
      [
        "▁বন",
        -9.589393615722656
      ],
      [
        "The",
        -9.589500427246094
      ],
      [
        "▁তথা",
        -9.589834213256836
      ],
      [
        "মু",
        -9.589852333068848
      ],
      [
        "▁সিং",
        -9.5904541015625
      ],
      [
        "F",
        -9.59074592590332
      ],
      [
        "▁year",
        -9.590993881225586
      ],
      [
        "▁আনতে",
        -9.591285705566406
      ],
      [
        "▁চতুর্থ",
        -9.591795921325684
      ],
      [
        "▁গো",
        -9.592435836791992
      ],
      [
        "▁=",
        -9.592461585998535
      ],
      [
        "সু",
        -9.593351364135742
      ],
      [
        "▁চোখের",
        -9.593561172485352
      ],
      [
        "▁হত",
        -9.593567848205566
      ],
      [
        "▁জড়িয়ে",
        -9.593637466430664
      ],
      [
        "▁কৃষক",
        -9.594001770019531
      ],
      [
        "▁ঝুঁকি",
        -9.594074249267578
      ],
      [
        "▁নেতৃত্ব",
        -9.594103813171388
      ],
      [
        "▁&",
        -9.594298362731934
      ],
      [
        "▁বলেই",
        -9.595100402832031
      ],
      [
        "▁সবুজ",
        -9.595213890075684
      ],
      [
        "কাল",
        -9.595935821533203
      ],
      [
        "▁under",
        -9.596549034118652
      ],
      [
        "স্ট",
        -9.596672058105469
      ],
      [
        "▁আসামি",
        -9.596970558166504
      ],
      [
        "সমূহ",
        -9.597627639770508
      ],
      [
        "প্র",
        -9.59762954711914
      ],
      [
        "▁বাসিন্দা",
        -9.598773002624512
      ],
      [
        "▁বিজয়",
        -9.59898281097412
      ],
      [
        "▁ম্যাচের",
        -9.599188804626465
      ],
      [
        "▁using",
        -9.59971809387207
      ],
      [
        "en",
        -9.600046157836914
      ],
      [
        "▁চারটি",
        -9.60094928741455
      ],
      [
        ",”",
        -9.601333618164062
      ],
      [
        "▁ভেতরে",
        -9.602051734924316
      ],
      [
        "▁হবেন",
        -9.602276802062988
      ],
      [
        "েও",
        -9.6023530960083
      ],
      [
        "▁মুজিবুর",
        -9.602633476257324
      ],
      [
        "জে",
        -9.603307723999023
      ],
      [
        "▁নির্ভর",
        -9.604973793029783
      ],
      [
        "▁must",
        -9.60568904876709
      ],
      [
        "▁before",
        -9.606380462646484
      ],
      [
        "▁কেন্দ্রে",
        -9.606627464294434
      ],
      [
        "▁সিরিজ",
        -9.606727600097656
      ],
      [
        "▁চীন",
        -9.60698699951172
      ],
      [
        "▁বৃষ্টি",
        -9.607638359069824
      ],
      [
        "কু",
        -9.6077241897583
      ],
      [
        "▁মুখোমুখি",
        -9.608513832092283
      ],
      [
        "▁জিনিস",
        -9.608563423156738
      ],
      [
        "▁করিম",
        -9.609375953674316
      ],
      [
        "▁স্বাধীন",
        -9.609505653381348
      ],
      [
        "▁study",
        -9.609708786010742
      ],
      [
        "▁নির্মিত",
        -9.609715461730955
      ],
      [
        "▁নন",
        -9.610132217407228
      ],
      [
        "▁ব",
        -9.61118507385254
      ],
      [
        "▁কোম্পানির",
        -9.611363410949709
      ],
      [
        "▁র্যাব",
        -9.61207675933838
      ],
      [
        "▁লিখেছেন",
        -9.61213207244873
      ],
      [
        "▁অনুমোদন",
        -9.612340927124023
      ],
      [
        "▁যাত্রা",
        -9.6136474609375
      ],
      [
        "▁প্রেম",
        -9.614190101623535
      ],
      [
        "▁পূরণ",
        -9.614748001098633
      ],
      [
        "লেন",
        -9.615029335021973
      ],
      [
        "শি",
        -9.615301132202148
      ],
      [
        "▁প্রসঙ্গে",
        -9.615311622619627
      ],
      [
        "▁প্রবাসী",
        -9.616307258605955
      ],
      [
        "▁Re",
        -9.616511344909668
      ],
      [
        "▁পরের",
        -9.61710262298584
      ],
      [
        "▁নারীদের",
        -9.618783950805664
      ],
      [
        "▁ভবন",
        -9.618823051452637
      ],
      [
        "▁রাজনীতি",
        -9.619836807250977
      ],
      [
        "▁What",
        -9.620147705078123
      ],
      [
        "▁বদলে",
        -9.62043285369873
      ],
      [
        "▁মিলিয়ন",
        -9.620512008666992
      ],
      [
        "▁তারকা",
        -9.620549201965332
      ],
      [
        "▁চলতে",
        -9.62058162689209
      ],
      [
        "▁পার্টি",
        -9.620595932006836
      ],
      [
        "▁ওজন",
        -9.620853424072266
      ],
      [
        "▁সমিতির",
        -9.620949745178224
      ],
      [
        "▁নীতি",
        -9.621319770812988
      ],
      [
        "▁আদেশ",
        -9.621366500854492
      ],
      [
        "▁সাহিত্য",
        -9.623157501220703
      ],
      [
        "▁বাস্তবায়ন",
        -9.624512672424316
      ],
      [
        "|",
        -9.624555587768556
      ],
      [
        "▁উপহার",
        -9.625102996826172
      ],
      [
        "মার",
        -9.626319885253906
      ],
      [
        "K",
        -9.627852439880373
      ],
      [
        "▁long",
        -9.62787628173828
      ],
      [
        "ষ্ট",
        -9.62803554534912
      ],
      [
        "▁সকলের",
        -9.628655433654783
      ],
      [
        "▁বিবেচনা",
        -9.62949562072754
      ],
      [
        "▁জে",
        -9.630512237548828
      ],
      [
        "▁বেশী",
        -9.63096523284912
      ],
      [
        "▁ভিত্তি",
        -9.632981300354004
      ],
      [
        "▁বেঁচে",
        -9.633469581604004
      ],
      [
        "▁খুশি",
        -9.634184837341309
      ],
      [
        "?”",
        -9.634976387023926
      ],
      [
        "▁বেতন",
        -9.635119438171388
      ],
      [
        "▁শিশুর",
        -9.635597229003906
      ],
      [
        "▁আন্দোলনের",
        -9.636178970336914
      ],
      [
        "ive",
        -9.636695861816406
      ],
      [
        "▁পারেননি",
        -9.637029647827148
      ],
      [
        "▁করোনায়",
        -9.63737678527832
      ],
      [
        "▁লাগবে",
        -9.637421607971191
      ],
      [
        "▁সম্পর্কিত",
        -9.638483047485352
      ],
      [
        "▁মন্দির",
        -9.638720512390137
      ],
      [
        "▁বিক্ষোভ",
        -9.638843536376951
      ],
      [
        "▁চলমান",
        -9.63931369781494
      ],
      [
        "▁মাঠ",
        -9.639453887939451
      ],
      [
        "▁রেল",
        -9.6404390335083
      ],
      [
        "ve",
        -9.640469551086426
      ],
      [
        "▁আক্রমণ",
        -9.64051342010498
      ],
      [
        "▁দুধ",
        -9.640708923339844
      ],
      [
        "▁শিল্পী",
        -9.642891883850098
      ],
      [
        "▁রাখুন",
        -9.642945289611816
      ],
      [
        "▁বজায়",
        -9.643036842346191
      ],
      [
        "▁ওয়ার্ড",
        -9.643141746520996
      ],
      [
        "▁হয়েছিলেন",
        -9.643389701843262
      ],
      [
        "▁পাতা",
        -9.644128799438477
      ],
      [
        "▁often",
        -9.644587516784668
      ],
      [
        "▁বলার",
        -9.644891738891602
      ],
      [
        "▁অসুস্থ",
        -9.64498805999756
      ],
      [
        "▁my",
        -9.645130157470703
      ],
      [
        "‘",
        -9.64535427093506
      ],
      [
        "▁যাত্রী",
        -9.64647388458252
      ],
      [
        "▁আসনের",
        -9.646570205688477
      ],
      [
        "▁মাস্ক",
        -9.64729118347168
      ],
      [
        "▁স্পষ্ট",
        -9.647360801696776
      ],
      [
        "▁মহাসচিব",
        -9.647793769836426
      ],
      [
        "▁তৈরী",
        -9.647904396057127
      ],
      [
        "▁সন্ধ্যায়",
        -9.64835262298584
      ],
      [
        "▁গোপন",
        -9.648646354675291
      ],
      [
        "▁day",
        -9.648988723754885
      ],
      [
        "▁এরা",
        -9.650851249694824
      ],
      [
        "▁নেয়ার",
        -9.650938987731934
      ],
      [
        "▁লাইন",
        -9.651090621948242
      ],
      [
        "▁ব্যাট",
        -9.652056694030762
      ],
      [
        "▁good",
        -9.652680397033691
      ],
      [
        "▁take",
        -9.653308868408203
      ],
      [
        "▁number",
        -9.653753280639648
      ],
      [
        "▁প্রতিবেদক",
        -9.653950691223145
      ],
      [
        "▁ব্যবহারের",
        -9.65407943725586
      ],
      [
        "▁নজরুল",
        -9.654316902160645
      ],
      [
        "▁কথায়",
        -9.654973030090332
      ],
      [
        "২৫",
        -9.65565586090088
      ],
      [
        "▁হাজির",
        -9.657180786132812
      ],
      [
        "st",
        -9.657316207885742
      ],
      [
        "ছিলেন",
        -9.657915115356444
      ],
      [
        "১১",
        -9.659442901611328
      ],
      [
        "▁ব্যবস্থাপনা",
        -9.659505844116213
      ],
      [
        "▁ব্যাখ্যা",
        -9.659717559814451
      ],
      [
        "▁কন্যা",
        -9.659930229187012
      ],
      [
        "▁ত",
        -9.660568237304688
      ],
      [
        "টে",
        -9.66094970703125
      ],
      [
        "▁New",
        -9.661956787109377
      ],
      [
        "▁পাই",
        -9.662014961242676
      ],
      [
        "||",
        -9.662116050720217
      ],
      [
        "▁ধারা",
        -9.662139892578123
      ],
      [
        "▁হুমকি",
        -9.662679672241213
      ],
      [
        "স্থ",
        -9.663171768188477
      ],
      [
        "▁নির্যাতন",
        -9.663299560546877
      ],
      [
        "▁টানা",
        -9.66347599029541
      ],
      [
        "▁কেন্দ্রের",
        -9.664237022399902
      ],
      [
        "এস",
        -9.664349555969238
      ],
      [
        "▁research",
        -9.666873931884766
      ],
      [
        "▁while",
        -9.666942596435549
      ],
      [
        "▁বাড়ছে",
        -9.667630195617676
      ],
      [
        "▁অ্যাপ",
        -9.66781520843506
      ],
      [
        "▁সামান্য",
        -9.667838096618652
      ],
      [
        "▁বিচারপতি",
        -9.668212890625
      ],
      [
        "ভিত্তিক",
        -9.670912742614746
      ],
      [
        "▁গ",
        -9.67214298248291
      ],
      [
        "▁সংযুক্ত",
        -9.672370910644531
      ],
      [
        "▁আছি",
        -9.672403335571287
      ],
      [
        "▁টেলিভিশন",
        -9.672613143920898
      ],
      [
        "▁হে",
        -9.67297649383545
      ],
      [
        "▁বোঝা",
        -9.673250198364258
      ],
      [
        "▁সাইট",
        -9.673322677612305
      ],
      [
        "▁আটকে",
        -9.67347240447998
      ],
      [
        "T",
        -9.673783302307127
      ],
      [
        "▁বলি",
        -9.674363136291504
      ],
      [
        "▁ব্যাপার",
        -9.67480754852295
      ],
      [
        "▁ফিরিয়ে",
        -9.675028800964355
      ],
      [
        "▁যাক",
        -9.676177024841309
      ],
      [
        "▁গুরুতর",
        -9.67795467376709
      ],
      [
        "▁ইচ্ছা",
        -9.67823886871338
      ],
      [
        "▁গোলাম",
        -9.67869758605957
      ],
      [
        "▁শোনা",
        -9.678729057312012
      ],
      [
        "▁যুব",
        -9.67886447906494
      ],
      [
        "▁সপ্তাহ",
        -9.67986297607422
      ],
      [
        "▁সিস্টেম",
        -9.680042266845703
      ],
      [
        "ll",
        -9.680906295776367
      ],
      [
        "▁ফের",
        -9.682358741760254
      ],
      [
        "▁ধারণ",
        -9.682672500610352
      ],
      [
        "১৭",
        -9.682746887207031
      ],
      [
        "নার",
        -9.684593200683594
      ],
      [
        "▁বিন",
        -9.685526847839355
      ],
      [
        "▁অনুষ্ঠানের",
        -9.685580253601074
      ],
      [
        "▁অনুসরণ",
        -9.68592643737793
      ],
      [
        "I",
        -9.687012672424316
      ],
      [
        "▁প্রাকৃতিক",
        -9.68735694885254
      ],
      [
        "▁ভাইস",
        -9.687673568725586
      ],
      [
        "কালে",
        -9.68808364868164
      ],
      [
        "▁তৈরির",
        -9.688254356384276
      ],
      [
        "▁সমান",
        -9.688596725463867
      ],
      [
        "▁সচেতন",
        -9.688732147216797
      ],
      [
        "▁আশ্রয়",
        -9.68903350830078
      ],
      [
        "▁দেখিয়ে",
        -9.690200805664062
      ],
      [
        "▁ট্রেন",
        -9.69065761566162
      ],
      [
        "it",
        -9.690993309020996
      ],
      [
        "▁আম",
        -9.69109344482422
      ],
      [
        "▁কাপ",
        -9.69163990020752
      ],
      [
        "▁নিয়ন্ত্রণে",
        -9.692896842956545
      ],
      [
        "▁সতর্ক",
        -9.69313907623291
      ],
      [
        "▁শাখা",
        -9.693255424499512
      ],
      [
        "▁আকাশ",
        -9.694053649902344
      ],
      [
        "▁”",
        -9.694053649902344
      ],
      [
        "▁কামনা",
        -9.69419765472412
      ],
      [
        "▁পাস",
        -9.694236755371094
      ],
      [
        "▁বিশ্বকাপ",
        -9.694620132446287
      ],
      [
        "▁পুনরায়",
        -9.69482135772705
      ],
      [
        "▁হবার",
        -9.695597648620604
      ],
      [
        "▁বাংলাদেশী",
        -9.69582748413086
      ],
      [
        "▁দেবেন",
        -9.6969575881958
      ],
      [
        "▁নুরুল",
        -9.697240829467772
      ],
      [
        "▁পরিস্থিতিতে",
        -9.697708129882812
      ],
      [
        "▁এজন্য",
        -9.698043823242188
      ],
      [
        "▁গ্যাস",
        -9.69858741760254
      ],
      [
        "▁শিক্ষার্থীরা",
        -9.698652267456056
      ],
      [
        "▁back",
        -9.6995210647583
      ],
      [
        "▁ঐতিহাসিক",
        -9.699718475341797
      ],
      [
        "কেই",
        -9.699721336364746
      ],
      [
        "▁পানির",
        -9.700769424438477
      ],
      [
        "▁নিকট",
        -9.701869010925291
      ],
      [
        "▁ব্যর্থ",
        -9.702651977539062
      ],
      [
        "▁p",
        -9.7029447555542
      ],
      [
        "man",
        -9.703609466552734
      ],
      [
        "▁বোন",
        -9.7039213180542
      ],
      [
        "the",
        -9.704602241516112
      ],
      [
        "▁স্কুলে",
        -9.7046480178833
      ],
      [
        "▁দান",
        -9.705049514770508
      ],
      [
        "▁এরই",
        -9.705770492553713
      ],
      [
        "▁ক্রীড়া",
        -9.706424713134766
      ],
      [
        "▁জাতি",
        -9.70646858215332
      ],
      [
        "▁When",
        -9.707426071166992
      ],
      [
        "▁তেমনি",
        -9.707884788513184
      ],
      [
        "▁থাকি",
        -9.708441734313965
      ],
      [
        "▁now",
        -9.708600044250488
      ],
      [
        "▁কিছুদিন",
        -9.70906925201416
      ],
      [
        "▁২০১১",
        -9.709275245666504
      ],
      [
        "▁সংস্কৃতি",
        -9.709931373596191
      ],
      [
        "▁ভাব",
        -9.710833549499512
      ],
      [
        "▁body",
        -9.710948944091797
      ],
      [
        "▁অবদান",
        -9.711013793945312
      ],
      [
        "▁W",
        -9.712201118469238
      ],
      [
        "▁শ",
        -9.712569236755373
      ],
      [
        "▁৩৫",
        -9.713404655456545
      ],
      [
        "▁know",
        -9.714044570922852
      ],
      [
        "▁সবসময়",
        -9.714567184448242
      ],
      [
        "▁ইমাম",
        -9.716111183166504
      ],
      [
        "গুলিতে",
        -9.716129302978516
      ],
      [
        "▁করোনাভাইরাস",
        -9.717514038085938
      ],
      [
        "▁এটাই",
        -9.71761989593506
      ],
      [
        "▁জো",
        -9.718018531799316
      ],
      [
        "0",
        -9.719507217407228
      ],
      [
        "যুক্ত",
        -9.719534873962402
      ],
      [
        "▁মিথ্যা",
        -9.719931602478027
      ],
      [
        "▁আউট",
        -9.720046043395996
      ],
      [
        "▁বসবাস",
        -9.72007656097412
      ],
      [
        "২৪",
        -9.720391273498535
      ],
      [
        "▁জিয়ার",
        -9.720422744750977
      ],
      [
        "▁চিহ্নিত",
        -9.721755981445312
      ],
      [
        "▁around",
        -9.721854209899902
      ],
      [
        "ফা",
        -9.722455024719238
      ],
      [
        "▁এন্ড",
        -9.722463607788086
      ],
      [
        "▁সাকিব",
        -9.722492218017578
      ],
      [
        "w",
        -9.722540855407717
      ],
      [
        "▁বিকেল",
        -9.722925186157228
      ],
      [
        "▁রা",
        -9.722965240478516
      ],
      [
        "কেও",
        -9.723076820373535
      ],
      [
        "▁চিকিৎসার",
        -9.723190307617188
      ],
      [
        "▁বিপুল",
        -9.723678588867188
      ],
      [
        "▁সরিয়ে",
        -9.723740577697754
      ],
      [
        "▁অধিকাংশ",
        -9.724102973937988
      ],
      [
        "▁কংগ্রেস",
        -9.72411060333252
      ],
      [
        "▁সন্তানের",
        -9.724199295043944
      ],
      [
        "▁চরম",
        -9.724432945251465
      ],
      [
        "২২",
        -9.724464416503906
      ],
      [
        "▁খুলনা",
        -9.72597599029541
      ],
      [
        "▁তাকিয়ে",
        -9.726285934448242
      ],
      [
        "▁ঘিরে",
        -9.726884841918944
      ],
      [
        "▁মনের",
        -9.727923393249512
      ],
      [
        "▁গা",
        -9.72883129119873
      ],
      [
        "▁নীল",
        -9.729434967041016
      ],
      [
        "▁উৎস",
        -9.729580879211426
      ],
      [
        "▁প্রতিমন্ত্রী",
        -9.729935646057127
      ],
      [
        "▁উঠতে",
        -9.729990005493164
      ],
      [
        "▁ফারুক",
        -9.73062515258789
      ],
      [
        "▁রোগীর",
        -9.73072624206543
      ],
      [
        "▁এক্ষেত্রে",
        -9.731060028076172
      ],
      [
        "▁University",
        -9.73172092437744
      ],
      [
        "▁জীবিত",
        -9.732038497924805
      ],
      [
        "▁ফুট",
        -9.732802391052246
      ],
      [
        "নী",
        -9.73284149169922
      ],
      [
        "▁মিটার",
        -9.734463691711426
      ],
      [
        "▁সম্মান",
        -9.7347412109375
      ],
      [
        "▁মাধ্যম",
        -9.734917640686035
      ],
      [
        "▁These",
        -9.73595905303955
      ],
      [
        "▁ওভারে",
        -9.737028121948242
      ],
      [
        "▁own",
        -9.737093925476074
      ],
      [
        "▁রেলওয়ে",
        -9.738921165466309
      ],
      [
        "▁লাগিয়ে",
        -9.738943099975586
      ],
      [
        "▁তাছাড়া",
        -9.739694595336914
      ],
      [
        "▁বিকাশ",
        -9.740009307861328
      ],
      [
        "▁মেয়ের",
        -9.740266799926758
      ],
      [
        "▁সংবিধান",
        -9.740937232971191
      ],
      [
        "▁গিয়েছিল",
        -9.741188049316406
      ],
      [
        "▁লিখিত",
        -9.741278648376465
      ],
      [
        "▁বক্তব্যে",
        -9.741722106933594
      ],
      [
        "▁অসংখ্য",
        -9.742437362670898
      ],
      [
        "▁বারবার",
        -9.742619514465332
      ],
      [
        "▁ভিটামিন",
        -9.74285888671875
      ],
      [
        "▁২০১৩",
        -9.742897987365724
      ],
      [
        "▁6",
        -9.743430137634276
      ],
      [
        "▁আবারও",
        -9.743437767028809
      ],
      [
        "▁কবিতা",
        -9.744157791137695
      ],
      [
        "▁রাজনীতিবিদ",
        -9.744755744934082
      ],
      [
        "▁প্রাচীন",
        -9.745442390441896
      ],
      [
        "▁ঘটনাস্থলে",
        -9.746013641357422
      ],
      [
        "▁করলাম",
        -9.746925354003906
      ],
      [
        "▁0",
        -9.747121810913086
      ],
      [
        "▁O",
        -9.747429847717283
      ],
      [
        "▁যেভাবে",
        -9.747688293457031
      ],
      [
        "১৬",
        -9.748028755187988
      ],
      [
        "▁And",
        -9.748041152954102
      ],
      [
        "▁দশ",
        -9.748212814331056
      ],
      [
        "▁শুভেচ্ছা",
        -9.748659133911133
      ],
      [
        "▁ব্যথা",
        -9.748748779296877
      ],
      [
        "▁মুখ্যমন্ত্রী",
        -9.74909210205078
      ],
      [
        "▁আদর্শ",
        -9.74909782409668
      ],
      [
        "▁ঈদ",
        -9.749754905700684
      ],
      [
        "▁৭০",
        -9.750268936157228
      ],
      [
        "▁হিসাব",
        -9.75041389465332
      ],
      [
        "▁বাসা",
        -9.750664710998535
      ],
      [
        "▁ক্যামেরা",
        -9.750701904296877
      ],
      [
        "W",
        -9.75181770324707
      ],
      [
        "▁অনেকটা",
        -9.752408981323242
      ],
      [
        "ুন",
        -9.752795219421388
      ],
      [
        "▁সেতু",
        -9.752918243408203
      ],
      [
        "▁কোচ",
        -9.75363826751709
      ],
      [
        "ment",
        -9.75424861907959
      ],
      [
        "▁৮০",
        -9.755746841430664
      ],
      [
        "▁স্কুলের",
        -9.755881309509276
      ],
      [
        "▁দে",
        -9.75621509552002
      ],
      [
        "▁প্রকার",
        -9.756219863891602
      ],
      [
        "▁অধিক",
        -9.75624942779541
      ],
      [
        "▁কার্যালয়ে",
        -9.75735855102539
      ],
      [
        "▁রাম",
        -9.75743293762207
      ],
      [
        "▁শ্রেষ্ঠ",
        -9.757986068725586
      ],
      [
        "▁পে",
        -9.758028984069824
      ],
      [
        "le",
        -9.758073806762695
      ],
      [
        "▁three",
        -9.7582368850708
      ],
      [
        "▁আসনে",
        -9.760175704956056
      ],
      [
        "▁পাশ",
        -9.760712623596191
      ],
      [
        "▁রস",
        -9.760918617248535
      ],
      [
        "▁স্মৃতি",
        -9.761073112487791
      ],
      [
        "▁সুতরাং",
        -9.76138401031494
      ],
      [
        "পার",
        -9.76240348815918
      ],
      [
        "▁হাসি",
        -9.762696266174316
      ],
      [
        "২১",
        -9.763229370117188
      ],
      [
        "▁মার",
        -9.763381004333496
      ],
      [
        "লার",
        -9.764244079589844
      ],
      [
        "el",
        -9.764595985412598
      ],
      [
        "▁প্রয়োগ",
        -9.764704704284668
      ],
      [
        "▁বিনিয়োগ",
        -9.764826774597168
      ],
      [
        "▁ডিজাইন",
        -9.764969825744627
      ],
      [
        "▁ওয়া",
        -9.76612377166748
      ],
      [
        "বাদ",
        -9.766142845153809
      ],
      [
        "▁নজর",
        -9.76619815826416
      ],
      [
        "▁বোর্ডের",
        -9.76632022857666
      ],
      [
        "▁বিধানসভা",
        -9.766740798950195
      ],
      [
        "▁দি",
        -9.76693344116211
      ],
      [
        "▁সরকারী",
        -9.767590522766112
      ],
      [
        "▁অফিসে",
        -9.767834663391112
      ],
      [
        "▁মমতা",
        -9.768370628356934
      ],
      [
        "▁শুরুর",
        -9.768811225891112
      ],
      [
        "▁শ্রদ্ধা",
        -9.76883029937744
      ],
      [
        "▁ফ্রি",
        -9.768978118896484
      ],
      [
        "▁শ্রী",
        -9.769379615783691
      ],
      [
        "▁বঙ্গবন্ধুর",
        -9.769513130187988
      ],
      [
        "▁মেয়েদের",
        -9.769956588745115
      ],
      [
        "১৪",
        -9.770391464233398
      ],
      [
        "▁ডে",
        -9.771440505981444
      ],
      [
        "▁কর্মকর্তারা",
        -9.772797584533691
      ],
      [
        "▁কারণেই",
        -9.772831916809082
      ],
      [
        "▁নিষিদ্ধ",
        -9.773492813110352
      ],
      [
        "▁উন্নয়নের",
        -9.773566246032717
      ],
      [
        "ওসি",
        -9.773785591125488
      ],
      [
        "▁food",
        -9.773860931396484
      ],
      [
        "▁বুঝে",
        -9.774202346801758
      ],
      [
        "▁নির্বাচনী",
        -9.774395942687988
      ],
      [
        "▁ফেরত",
        -9.775981903076172
      ],
      [
        "▁খ",
        -9.776572227478027
      ],
      [
        "য়ার",
        -9.777688026428224
      ],
      [
        "▁দুটো",
        -9.778247833251951
      ],
      [
        "▁একেবারে",
        -9.778487205505373
      ],
      [
        "▁শুরুতে",
        -9.778570175170898
      ],
      [
        "▁আশঙ্কা",
        -9.779213905334473
      ],
      [
        "▁বিশ্বে",
        -9.781373023986816
      ],
      [
        "▁কর্ম",
        -9.78203010559082
      ],
      [
        "▁কাউন্সিলর",
        -9.782391548156738
      ],
      [
        "▁মরদেহ",
        -9.782525062561035
      ],
      [
        "▁চালানো",
        -9.783246994018556
      ],
      [
        "▁সন্ধ্যা",
        -9.783527374267578
      ],
      [
        "▁ছুটি",
        -9.783589363098145
      ],
      [
        "▁ভি",
        -9.783910751342772
      ],
      [
        "▁চাষ",
        -9.784106254577637
      ],
      [
        "লু",
        -9.784555435180664
      ],
      [
        "▁ভেতর",
        -9.78525447845459
      ],
      [
        "ar",
        -9.785788536071776
      ],
      [
        "▁খাওয়ার",
        -9.78600788116455
      ],
      [
        "ময়",
        -9.78602695465088
      ],
      [
        "ম্যান",
        -9.786596298217772
      ],
      [
        "3",
        -9.787032127380373
      ],
      [
        "▁নিচের",
        -9.787818908691406
      ],
      [
        "▁সংরক্ষণ",
        -9.787930488586426
      ],
      [
        "▁বাণিজ্য",
        -9.788019180297852
      ],
      [
        "▁কারা",
        -9.788980484008787
      ],
      [
        "▁জানে",
        -9.78936767578125
      ],
      [
        "ত্ব",
        -9.79012680053711
      ],
      [
        "রী",
        -9.79023265838623
      ],
      [
        "▁এবারের",
        -9.79029941558838
      ],
      [
        "▁চ্যানেল",
        -9.79065227508545
      ],
      [
        "▁স্ব",
        -9.790874481201172
      ],
      [
        "▁ঢুকে",
        -9.794068336486816
      ],
      [
        "▁she",
        -9.795367240905762
      ],
      [
        "▁টাকায়",
        -9.795733451843262
      ],
      [
        "▁human",
        -9.796255111694336
      ],
      [
        "▁example",
        -9.79726505279541
      ],
      [
        "▁অভিযুক্ত",
        -9.79775333404541
      ],
      [
        "আমার",
        -9.797828674316406
      ],
      [
        "▁হোটেল",
        -9.798691749572754
      ],
      [
        "▁নেতারা",
        -9.80015468597412
      ],
      [
        "▁ত্যাগ",
        -9.800426483154297
      ],
      [
        "▁does",
        -9.80162239074707
      ],
      [
        "▁হালকা",
        -9.80174732208252
      ],
      [
        "▁চিঠি",
        -9.801984786987305
      ],
      [
        "▁এতো",
        -9.802749633789062
      ],
      [
        "▁No",
        -9.802810668945312
      ],
      [
        "▁প্রাপ্ত",
        -9.802967071533203
      ],
      [
        "▁প্রকৃত",
        -9.80320930480957
      ],
      [
        "4",
        -9.803728103637695
      ],
      [
        "▁মাটি",
        -9.80470085144043
      ],
      [
        "▁সার",
        -9.8047513961792
      ],
      [
        "▁পাঠ",
        -9.804848670959473
      ],
      [
        "▁শিক্ষার",
        -9.805323600769045
      ],
      [
        "▁লি",
        -9.80541706085205
      ],
      [
        "M",
        -9.805546760559082
      ],
      [
        "▁২০২২",
        -9.80595874786377
      ],
      [
        "▁আগ্রহ",
        -9.80728244781494
      ],
      [
        "▁ঈদের",
        -9.807344436645508
      ],
      [
        "▁চালায়",
        -9.807482719421388
      ],
      [
        "▁দাবিতে",
        -9.808426856994627
      ],
      [
        "▁গেলো",
        -9.808561325073242
      ],
      [
        "নগর",
        -9.808749198913574
      ],
      [
        "▁বিজ্ঞপ্তিতে",
        -9.80982494354248
      ],
      [
        "▁Comments",
        -9.810012817382812
      ],
      [
        "▁ধর্ষণ",
        -9.810078620910645
      ],
      [
        "▁উপদেষ্টা",
        -9.810341835021973
      ],
      [
        "▁রাজ্যে",
        -9.810903549194336
      ],
      [
        "▁স্বীকৃতি",
        -9.811030387878418
      ],
      [
        "▁ধ্বংস",
        -9.81105899810791
      ],
      [
        "▁including",
        -9.811187744140623
      ],
      [
        "▁আমিন",
        -9.811331748962402
      ],
      [
        "▁ক্লাবের",
        -9.81164264678955
      ],
      [
        "সভাপতি",
        -9.812981605529783
      ],
      [
        "▁So",
        -9.8130464553833
      ],
      [
        "▁অভিষেক",
        -9.813090324401855
      ],
      [
        ".)",
        -9.81405544281006
      ],
      [
        "▁ন",
        -9.81463623046875
      ],
      [
        "▁গোয়েন্দা",
        -9.814759254455566
      ],
      [
        "▁জবাবে",
        -9.815216064453123
      ],
      [
        "▁মতামত",
        -9.81590175628662
      ],
      [
        "▁আজকে",
        -9.817168235778809
      ],
      [
        "▁সেন্টার",
        -9.81740379333496
      ],
      [
        "কর",
        -9.817508697509766
      ],
      [
        "▁নামাজ",
        -9.817550659179688
      ],
      [
        "▁কিনে",
        -9.817571640014648
      ],
      [
        "▁down",
        -9.817723274230955
      ],
      [
        "id",
        -9.81787395477295
      ],
      [
        "▁কাটা",
        -9.819061279296877
      ],
      [
        "▁জা",
        -9.821468353271484
      ],
      [
        "▁আপডেট",
        -9.821487426757812
      ],
      [
        "▁দারুণ",
        -9.822264671325684
      ],
      [
        "আমরা",
        -9.823105812072754
      ],
      [
        "u",
        -9.823670387268066
      ],
      [
        "▁মুহূর্তে",
        -9.82402229309082
      ],
      [
        "H",
        -9.824211120605469
      ],
      [
        "▁পেলে",
        -9.82447624206543
      ],
      [
        "▁বাবু",
        -9.8245267868042
      ],
      [
        "▁বলেছে",
        -9.824976921081545
      ],
      [
        "▁বললাম",
        -9.825815200805664
      ],
      [
        "▁হু",
        -9.825851440429688
      ],
      [
        "▁জানাতে",
        -9.826397895812988
      ],
      [
        "▁চেক",
        -9.82672119140625
      ],
      [
        "▁কল্যাণ",
        -9.826952934265137
      ],
      [
        "▁বেছে",
        -9.827075004577637
      ],
      [
        "ism",
        -9.827171325683594
      ],
      [
        "▁লিখে",
        -9.827366828918455
      ],
      [
        "▁গাছের",
        -9.82785701751709
      ],
      [
        "▁পৌরসভার",
        -9.828125953674316
      ],
      [
        "▁শাখার",
        -9.828667640686035
      ],
      [
        "▁স্বাধীনতার",
        -9.829155921936035
      ],
      [
        "▁সেদিন",
        -9.829676628112791
      ],
      [
        "▁পানিতে",
        -9.830207824707031
      ],
      [
        "রু",
        -9.83073616027832
      ],
      [
        "▁দুর্ঘটনা",
        -9.830795288085938
      ],
      [
        "▁ল",
        -9.831534385681152
      ],
      [
        "▁বৈশিষ্ট্য",
        -9.83258056640625
      ],
      [
        "▁ভালোবাসা",
        -9.833112716674805
      ],
      [
        "▁গায়ে",
        -9.83371925354004
      ],
      [
        "▁মিল",
        -9.83386516571045
      ],
      [
        "▁ফর",
        -9.834111213684082
      ],
      [
        "▁কলকাতার",
        -9.834659576416016
      ],
      [
        "হি",
        -9.834742546081545
      ],
      [
        "িন",
        -9.835124015808104
      ],
      [
        "▁per",
        -9.835330963134766
      ],
      [
        "▁চরিত্র",
        -9.836383819580078
      ],
      [
        "▁মৌসুমে",
        -9.836580276489258
      ],
      [
        "▁কারনে",
        -9.836675643920898
      ],
      [
        "▁শো",
        -9.836989402770996
      ],
      [
        "▁ফায়ার",
        -9.837075233459473
      ],
      [
        "▁সংকট",
        -9.83767032623291
      ],
      [
        "▁ফেসবুকে",
        -9.83785343170166
      ],
      [
        "গঞ্জ",
        -9.837955474853516
      ],
      [
        "▁প্রতিযোগিতা",
        -9.838187217712402
      ],
      [
        "▁২০১০",
        -9.838272094726562
      ],
      [
        "▁ইচ্ছে",
        -9.83837604522705
      ],
      [
        "▁বরিশাল",
        -9.838494300842283
      ],
      [
        "L",
        -9.838946342468262
      ],
      [
        "▁ভেবে",
        -9.839500427246094
      ],
      [
        "সার",
        -9.840764045715332
      ],
      [
        "▁ইকবাল",
        -9.8411283493042
      ],
      [
        "▁process",
        -9.841917037963867
      ],
      [
        "▁২০১২",
        -9.84195613861084
      ],
      [
        "▁গতি",
        -9.842144012451172
      ],
      [
        "▁ক্লাস",
        -9.842269897460938
      ],
      [
        "▁যুবক",
        -9.842388153076172
      ],
      [
[...]
